{
  "version": "1.0",
  "truncation": null,
  "padding": null,
  "added_tokens": [
    {
      "id": 0,
      "content": "[UNK]",
      "single_word": false,
      "lstrip": false,
      "rstrip": false,
      "normalized": false,
      "special": true
    },
    {
      "id": 1,
      "content": "[CLS]",
      "single_word": false,
      "lstrip": false,
      "rstrip": false,
      "normalized": false,
      "special": true
    },
    {
      "id": 2,
      "content": "[SEP]",
      "single_word": false,
      "lstrip": false,
      "rstrip": false,
      "normalized": false,
      "special": true
    },
    {
      "id": 3,
      "content": "[PAD]",
      "single_word": false,
      "lstrip": false,
      "rstrip": false,
      "normalized": false,
      "special": true
    },
    {
      "id": 4,
      "content": "[MASK]",
      "single_word": false,
      "lstrip": false,
      "rstrip": false,
      "normalized": false,
      "special": true
    }
  ],
  "normalizer": null,
  "pre_tokenizer": {
    "type": "Whitespace"
  },
  "post_processor": null,
  "decoder": null,
  "model": {
    "type": "BPE",
    "dropout": null,
    "unk_token": "[UNK]",
    "continuing_subword_prefix": null,
    "end_of_word_suffix": null,
    "fuse_unk": false,
    "byte_fallback": false,
    "ignore_merges": false,
    "vocab": {
      "[UNK]": 0,
      "[CLS]": 1,
      "[SEP]": 2,
      "[PAD]": 3,
      "[MASK]": 4,
      "!": 5,
      "\"": 6,
      "#": 7,
      "$": 8,
      "%": 9,
      "&": 10,
      "'": 11,
      "(": 12,
      ")": 13,
      "*": 14,
      "+": 15,
      ",": 16,
      "-": 17,
      ".": 18,
      "/": 19,
      "0": 20,
      "1": 21,
      "2": 22,
      "3": 23,
      "4": 24,
      "5": 25,
      "6": 26,
      "7": 27,
      "8": 28,
      "9": 29,
      ":": 30,
      ";": 31,
      "=": 32,
      "?": 33,
      "@": 34,
      "A": 35,
      "B": 36,
      "C": 37,
      "D": 38,
      "E": 39,
      "F": 40,
      "G": 41,
      "H": 42,
      "I": 43,
      "J": 44,
      "K": 45,
      "L": 46,
      "M": 47,
      "N": 48,
      "O": 49,
      "P": 50,
      "Q": 51,
      "R": 52,
      "S": 53,
      "T": 54,
      "U": 55,
      "V": 56,
      "W": 57,
      "X": 58,
      "Y": 59,
      "Z": 60,
      "\\": 61,
      "_": 62,
      "a": 63,
      "b": 64,
      "c": 65,
      "d": 66,
      "e": 67,
      "f": 68,
      "g": 69,
      "h": 70,
      "i": 71,
      "j": 72,
      "k": 73,
      "l": 74,
      "m": 75,
      "n": 76,
      "o": 77,
      "p": 78,
      "q": 79,
      "r": 80,
      "s": 81,
      "t": 82,
      "u": 83,
      "v": 84,
      "w": 85,
      "x": 86,
      "y": 87,
      "z": 88,
      "~": 89,
      "": 90,
      "£": 91,
      "¥": 92,
      "°": 93,
      "–": 94,
      "—": 95,
      "‘": 96,
      "’": 97,
      "“": 98,
      "”": 99,
      "′": 100,
      "、": 101,
      "。": 102,
      "th": 103,
      "ou": 104,
      "in": 105,
      "re": 106,
      "an": 107,
      "the": 108,
      "you": 109,
      "at": 110,
      "on": 111,
      "to": 112,
      "er": 113,
      "ll": 114,
      "or": 115,
      "me": 116,
      "ing": 117,
      "is": 118,
      "it": 119,
      "he": 120,
      "ve": 121,
      "st": 122,
      "se": 123,
      "le": 124,
      "ar": 125,
      "ow": 126,
      "es": 127,
      "ha": 128,
      "be": 129,
      "and": 130,
      "en": 131,
      "ay": 132,
      "ke": 133,
      "of": 134,
      "hat": 135,
      "oo": 136,
      "for": 137,
      "ic": 138,
      "as": 139,
      "al": 140,
      "ed": 141,
      "ld": 142,
      "all": 143,
      "we": 144,
      "so": 145,
      "wi": 146,
      "have": 147,
      "li": 148,
      "do": 149,
      "ch": 150,
      "that": 151,
      "gh": 152,
      "ut": 153,
      "et": 154,
      "are": 155,
      "ot": 156,
      "ver": 157,
      "id": 158,
      "co": 159,
      "ould": 160,
      "your": 161,
      "ne": 162,
      "ri": 163,
      "ght": 164,
      "ro": 165,
      "out": 166,
      "ab": 167,
      "ac": 168,
      "can": 169,
      "nt": 170,
      "ion": 171,
      "ad": 172,
      "ly": 173,
      "go": 174,
      "my": 175,
      "ir": 176,
      "one": 177,
      "It": 178,
      "We": 179,
      "like": 180,
      "You": 181,
      "now": 182,
      "What": 183,
      "nd": 184,
      "su": 185,
      "The": 186,
      "with": 187,
      "am": 188,
      "ood": 189,
      "this": 190,
      "any": 191,
      "ter": 192,
      "ti": 193,
      "mo": 194,
      "ink": 195,
      "our": 196,
      "sh": 197,
      "ust": 198,
      "ant": 199,
      "ally": 200,
      "ple": 201,
      "Yes": 202,
      "pe": 203,
      "some": 204,
      "very": 205,
      "get": 206,
      "ake": 207,
      "ce": 208,
      "about": 209,
      "ry": 210,
      "fe": 211,
      "thing": 212,
      "day": 213,
      "te": 214,
      "will": 215,
      "think": 216,
      "Th": 217,
      "ag": 218,
      "here": 219,
      "wor": 220,
      "lo": 221,
      "if": 222,
      "us": 223,
      "ank": 224,
      "know": 225,
      "mp": 226,
      "don": 227,
      "not": 228,
      "That": 229,
      "ther": 230,
      "time": 231,
      "but": 232,
      "He": 233,
      "How": 234,
      "ho": 235,
      "see": 236,
      "was": 237,
      "ook": 238,
      "ice": 239,
      "ur": 240,
      "there": 241,
      "ex": 242,
      "ase": 243,
      "de": 244,
      "pp": 245,
      "ind": 246,
      "ra": 247,
      "right": 248,
      "what": 249,
      "want": 250,
      "pro": 251,
      "ation": 252,
      "ine": 253,
      "just": 254,
      "good": 255,
      "up": 256,
      "ment": 257,
      "ct": 258,
      "..": 259,
      "ent": 260,
      "art": 261,
      "way": 262,
      "would": 263,
      "use": 264,
      "Do": 265,
      "per": 266,
      "ard": 267,
      "Well": 268,
      "ate": 269,
      "mu": 270,
      "pl": 271,
      "ive": 272,
      "No": 273,
      "ge": 274,
      "Thank": 275,
      "work": 276,
      "too": 277,
      "ast": 278,
      "hi": 279,
      "ight": 280,
      "con": 281,
      "un": 282,
      "no": 283,
      "need": 284,
      "end": 285,
      "qu": 286,
      "really": 287,
      "ill": 288,
      "But": 289,
      "Oh": 290,
      "ea": 291,
      "much": 292,
      "ong": 293,
      "ain": 294,
      "ul": 295,
      "hen": 296,
      "ure": 297,
      "going": 298,
      "ble": 299,
      "il": 300,
      "po": 301,
      "take": 302,
      "did": 303,
      "ak": 304,
      "rom": 305,
      "look": 306,
      "they": 307,
      "el": 308,
      "ye": 309,
      "ck": 310,
      "af": 311,
      "come": 312,
      "ss": 313,
      "ound": 314,
      "from": 315,
      "please": 316,
      "hel": 317,
      "ack": 318,
      "ame": 319,
      "ort": 320,
      "help": 321,
      "should": 322,
      "hy": 323,
      "ig": 324,
      "ning": 325,
      "comp": 326,
      "ite": 327,
      "jo": 328,
      "ess": 329,
      "got": 330,
      "sp": 331,
      "more": 332,
      "che": 333,
      "pre": 334,
      "new": 335,
      "mor": 336,
      "off": 337,
      "red": 338,
      "tr": 339,
      "ave": 340,
      "reat": 341,
      "them": 342,
      "able": 343,
      "other": 344,
      "And": 345,
      "how": 346,
      "So": 347,
      "been": 348,
      "cou": 349,
      "ers": 350,
      "ity": 351,
      "bo": 352,
      "Can": 353,
      "ree": 354,
      "Is": 355,
      "make": 356,
      "act": 357,
      "part": 358,
      "by": 359,
      "eve": 360,
      "could": 361,
      "OK": 362,
      "own": 363,
      "com": 364,
      "ople": 365,
      "over": 366,
      "oom": 367,
      "bu": 368,
      "pr": 369,
      "ish": 370,
      "...": 371,
      "sure": 372,
      "fo": 373,
      "ie": 374,
      "her": 375,
      "mb": 376,
      "has": 377,
      "tw": 378,
      "ars": 379,
      "ek": 380,
      "when": 381,
      "read": 382,
      "rest": 383,
      "lot": 384,
      "man": 385,
      "room": 386,
      "people": 387,
      "ty": 388,
      "she": 389,
      "ous": 390,
      "week": 391,
      "cl": 392,
      "Let": 393,
      "call": 394,
      "sa": 395,
      "every": 396,
      "then": 397,
      "ist": 398,
      "spe": 399,
      "tell": 400,
      "gu": 401,
      "ci": 402,
      "count": 403,
      "00": 404,
      "ep": 405,
      "bus": 406,
      "irst": 407,
      "age": 408,
      "well": 409,
      "let": 410,
      "orry": 411,
      "ough": 412,
      "ser": 413,
      "had": 414,
      "May": 415,
      "bet": 416,
      "give": 417,
      "ick": 418,
      "ca": 419,
      "long": 420,
      "Good": 421,
      "back": 422,
      "say": 423,
      "They": 424,
      "der": 425,
      "row": 426,
      "My": 427,
      "after": 428,
      "Are": 429,
      "cour": 430,
      "does": 431,
      "great": 432,
      "Why": 433,
      "und": 434,
      "lf": 435,
      "ving": 436,
      "If": 437,
      "eah": 438,
      "blem": 439,
      "problem": 440,
      "ide": 441,
      "ass": 442,
      "ies": 443,
      "him": 444,
      "ma": 445,
      "sto": 446,
      "sir": 447,
      "Ch": 448,
      "There": 449,
      "br": 450,
      "job": 451,
      "won": 452,
      "fore": 453,
      "itt": 454,
      "app": 455,
      "course": 456,
      "chan": 457,
      "This": 458,
      "tra": 459,
      "today": 460,
      "first": 461,
      "Here": 462,
      "two": 463,
      "gl": 464,
      "mber": 465,
      "only": 466,
      "ace": 467,
      "pay": 468,
      "something": 469,
      "Mr": 470,
      "mon": 471,
      "ary": 472,
      "gr": 473,
      "many": 474,
      "try": 475,
      "min": 476,
      "si": 477,
      "ich": 478,
      "kind": 479,
      "fri": 480,
      "ket": 481,
      "alk": 482,
      "xt": 483,
      "Yeah": 484,
      "ud": 485,
      "his": 486,
      "most": 487,
      "Ok": 488,
      "Thanks": 489,
      "company": 490,
      "oney": 491,
      "feel": 492,
      "Sure": 493,
      "find": 494,
      "love": 495,
      "last": 496,
      "ool": 497,
      "ans": 498,
      "ater": 499,
      "sorry": 500,
      "happ": 501,
      "morning": 502,
      "better": 503,
      "Have": 504,
      "du": 505,
      "next": 506,
      "anything": 507,
      "av": 508,
      "meet": 509,
      "where": 510,
      "ten": 511,
      "ose": 512,
      "didn": 513,
      "buy": 514,
      "also": 515,
      "sit": 516,
      "ways": 517,
      "mer": 518,
      "were": 519,
      "pen": 520,
      "Would": 521,
      "ought": 522,
      "ance": 523,
      "Don": 524,
      "car": 525,
      "ms": 526,
      "pt": 527,
      "who": 528,
      "than": 529,
      "cause": 530,
      "clo": 531,
      "friend": 532,
      "ked": 533,
      "down": 534,
      "ittle": 535,
      "must": 536,
      "inter": 537,
      "di": 538,
      "little": 539,
      "int": 540,
      "ready": 541,
      "fin": 542,
      "check": 543,
      "may": 544,
      "ign": 545,
      "She": 546,
      "mar": 547,
      "wr": 548,
      "before": 549,
      "ounds": 550,
      "hich": 551,
      "money": 552,
      "nice": 553,
      "air": 554,
      "play": 555,
      "ise": 556,
      "always": 557,
      "bl": 558,
      "inte": 559,
      "imp": 560,
      "ful": 561,
      "urn": 562,
      "rent": 563,
      "llo": 564,
      "vie": 565,
      "start": 566,
      "name": 567,
      "interest": 568,
      "ue": 569,
      "home": 570,
      "ait": 571,
      "dis": 572,
      "dif": 573,
      "month": 574,
      "Ve": 575,
      "again": 576,
      "atch": 577,
      "ade": 578,
      "Re": 579,
      "When": 580,
      "night": 581,
      "self": 582,
      "les": 583,
      "ask": 584,
      "ert": 585,
      "Hello": 586,
      "Did": 587,
      "tor": 588,
      "thank": 589,
      "things": 590,
      "morrow": 591,
      "son": 592,
      "put": 593,
      "est": 594,
      "ner": 595,
      "ions": 596,
      "ting": 597,
      "aking": 598,
      "mean": 599,
      "days": 600,
      "Where": 601,
      "nu": 602,
      "these": 603,
      "All": 604,
      "form": 605,
      "hard": 606,
      "Ex": 607,
      "lease": 608,
      "ang": 609,
      "still": 610,
      "dr": 611,
      "minut": 612,
      "tomorrow": 613,
      "mind": 614,
      "stand": 615,
      "serv": 616,
      "ouse": 617,
      "few": 618,
      "Could": 619,
      "late": 620,
      "la": 621,
      "ven": 622,
      "fic": 623,
      "ren": 624,
      "idea": 625,
      "year": 626,
      "into": 627,
      "Hi": 628,
      "never": 629,
      "ever": 630,
      "cor": 631,
      "care": 632,
      "ton": 633,
      "their": 634,
      "In": 635,
      "food": 636,
      "ach": 637,
      "En": 638,
      "ny": 639,
      "doing": 640,
      "Please": 641,
      "show": 642,
      "sch": 643,
      "Of": 644,
      "lear": 645,
      "ph": 646,
      "why": 647,
      "yes": 648,
      "ps": 649,
      "mis": 650,
      "ru": 651,
      "Just": 652,
      "best": 653,
      "under": 654,
      "Co": 655,
      "hour": 656,
      "wait": 657,
      "keep": 658,
      "Be": 659,
      "bad": 660,
      "big": 661,
      "talk": 662,
      "stud": 663,
      "Then": 664,
      "bit": 665,
      "Not": 666,
      "card": 667,
      "ily": 668,
      "old": 669,
      "school": 670,
      "book": 671,
      "tri": 672,
      "lu": 673,
      "sho": 674,
      "hope": 675,
      "fine": 676,
      "house": 677,
      "light": 678,
      "change": 679,
      "ild": 680,
      "turn": 681,
      "iness": 682,
      "because": 683,
      "fam": 684,
      "im": 685,
      "around": 686,
      "To": 687,
      "hand": 688,
      "ious": 689,
      "pa": 690,
      "Engl": 691,
      "ress": 692,
      "else": 693,
      "plan": 694,
      "years": 695,
      "three": 696,
      "partment": 697,
      "ually": 698,
      "quite": 699,
      "eat": 700,
      "cuse": 701,
      "vis": 702,
      "class": 703,
      "raid": 704,
      "place": 705,
      "working": 706,
      "afraid": 707,
      "looking": 708,
      "doll": 709,
      "ence": 710,
      "Maybe": 711,
      "ather": 712,
      "times": 713,
      "ail": 714,
      "diffe": 715,
      "order": 716,
      "cent": 717,
      "English": 718,
      "made": 719,
      "office": 720,
      "lic": 721,
      "ear": 722,
      "posit": 723,
      "hot": 724,
      "business": 725,
      "cial": 726,
      "fer": 727,
      "arge": 728,
      "isn": 729,
      "stay": 730,
      "Really": 731,
      "noon": 732,
      "joy": 733,
      "sm": 734,
      "sounds": 735,
      "live": 736,
      "drink": 737,
      "set": 738,
      "supp": 739,
      "thought": 740,
      "ash": 741,
      "soon": 742,
      "high": 743,
      "ark": 744,
      "ster": 745,
      "ertain": 746,
      "number": 747,
      "usu": 748,
      "doesn": 749,
      "ze": 750,
      "happen": 751,
      "eas": 752,
      "mat": 753,
      "side": 754,
      "even": 755,
      "din": 756,
      "sur": 757,
      "said": 758,
      "ft": 759,
      "another": 760,
      "leave": 761,
      "Excuse": 762,
      "ull": 763,
      "wonder": 764,
      "inese": 765,
      "afternoon": 766,
      "enjoy": 767,
      "hear": 768,
      "fi": 769,
      "ction": 770,
      "hile": 771,
      "Now": 772,
      "its": 773,
      "cond": 774,
      "same": 775,
      "each": 776,
      "Chinese": 777,
      "view": 778,
      "des": 779,
      "haven": 780,
      "res": 781,
      "price": 782,
      "ap": 783,
      "mi": 784,
      "which": 785,
      "person": 786,
      "akes": 787,
      "phone": 788,
      "heard": 789,
      "lieve": 790,
      "dollars": 791,
      "dri": 792,
      "minutes": 793,
      "sk": 794,
      "sed": 795,
      "dec": 796,
      "lcome": 797,
      "done": 798,
      "ated": 799,
      "low": 800,
      "tic": 801,
      "such": 802,
      "line": 803,
      "sha": 804,
      "bre": 805,
      "might": 806,
      "account": 807,
      "while": 808,
      "cre": 809,
      "sing": 810,
      "cle": 811,
      "peri": 812,
      "member": 813,
      "everything": 814,
      "import": 815,
      "bab": 816,
      "tty": 817,
      "head": 818,
      "coming": 819,
      "guess": 820,
      "getting": 821,
      "table": 822,
      "watch": 823,
      "ations": 824,
      "port": 825,
      "already": 826,
      "ertainly": 827,
      "produ": 828,
      "dy": 829,
      "bring": 830,
      "different": 831,
      "ip": 832,
      "Your": 833,
      "enough": 834,
      "usually": 835,
      "Okay": 836,
      "tonight": 837,
      "aut": 838,
      "ee": 839,
      "rough": 840,
      "yet": 841,
      "comput": 842,
      "fun": 843,
      "pare": 844,
      "ste": 845,
      "ular": 846,
      "um": 847,
      "believe": 848,
      "lle": 849,
      "used": 850,
      "10": 851,
      "cus": 852,
      "gir": 853,
      "ticket": 854,
      "worry": 855,
      "oh": 856,
      "Any": 857,
      "Will": 858,
      "dinner": 859,
      "sport": 860,
      "sent": 861,
      "train": 862,
      "doc": 863,
      "vers": 864,
      "fee": 865,
      "five": 866,
      "fect": 867,
      "looks": 868,
      "list": 869,
      "ina": 870,
      "beaut": 871,
      "pretty": 872,
      "als": 873,
      "happy": 874,
      "free": 875,
      "ses": 876,
      "away": 877,
      "those": 878,
      "att": 879,
      "hed": 880,
      "add": 881,
      "meeting": 882,
      "later": 883,
      "friends": 884,
      "cy": 885,
      "cost": 886,
      "ible": 887,
      "ts": 888,
      "important": 889,
      "vel": 890,
      "Hey": 891,
      "reg": 892,
      "understand": 893,
      "ding": 894,
      "cept": 895,
      "through": 896,
      "ments": 897,
      "quest": 898,
      "sign": 899,
      "run": 900,
      "wrong": 901,
      "open": 902,
      "evening": 903,
      "ical": 904,
      "uan": 905,
      "full": 906,
      "offer": 907,
      "often": 908,
      "speak": 909,
      "Fr": 910,
      "cess": 911,
      "small": 912,
      "unt": 913,
      "ward": 914,
      "cho": 915,
      "party": 916,
      "ason": 917,
      "cont": 918,
      "family": 919,
      "thanks": 920,
      "bro": 921,
      "city": 922,
      "ef": 923,
      "mm": 924,
      "Al": 925,
      "gether": 926,
      "together": 927,
      "special": 928,
      "For": 929,
      "child": 930,
      "Look": 931,
      "Some": 932,
      "Amer": 933,
      "inform": 934,
      "computer": 935,
      "Americ": 936,
      "je": 937,
      "left": 938,
      "agree": 939,
      "learn": 940,
      "ition": 941,
      "ult": 942,
      "beautif": 943,
      "bed": 944,
      "lor": 945,
      "life": 946,
      "colle": 947,
      "ried": 948,
      "ta": 949,
      "send": 950,
      "expen": 951,
      "far": 952,
      "easy": 953,
      "real": 954,
      "iting": 955,
      "move": 956,
      "sal": 957,
      "less": 958,
      "country": 959,
      "Which": 960,
      "ball": 961,
      "ok": 962,
      "fast": 963,
      "led": 964,
      "ict": 965,
      "Mo": 966,
      "moment": 967,
      "beautiful": 968,
      "went": 969,
      "seems": 970,
      "service": 971,
      "med": 972,
      "ities": 973,
      "Sorry": 974,
      "cur": 975,
      "market": 976,
      "mus": 977,
      "ouble": 978,
      "weekend": 979,
      "Who": 980,
      "ces": 981,
      "ob": 982,
      "rece": 983,
      "Great": 984,
      "gest": 985,
      "experi": 986,
      "kid": 987,
      "case": 988,
      "str": 989,
      "bor": 990,
      "fav": 991,
      "St": 992,
      "suppose": 993,
      "fill": 994,
      "ery": 995,
      "walk": 996,
      "miss": 997,
      "cred": 998,
      "having": 999,
      "nts": 1000,
      "aur": 1001,
      "inv": 1002,
      "mplo": 1003,
      "sive": 1004,
      "wo": 1005,
      "told": 1006,
      "pect": 1007,
      "glad": 1008,
      "remember": 1009,
      "teach": 1010,
      "interested": 1011,
      "Come": 1012,
      "bably": 1013,
      "offee": 1014,
      "true": 1015,
      "yourself": 1016,
      "stop": 1017,
      "game": 1018,
      "ince": 1019,
      "ited": 1020,
      "prefer": 1021,
      "hours": 1022,
      "cut": 1023,
      "welcome": 1024,
      "information": 1025,
      "China": 1026,
      "ager": 1027,
      "world": 1028,
      "poss": 1029,
      "interview": 1030,
      "interesting": 1031,
      "alth": 1032,
      "four": 1033,
      "sug": 1034,
      "movie": 1035,
      "pping": 1036,
      "body": 1037,
      "being": 1038,
      "break": 1039,
      "someone": 1040,
      "gg": 1041,
      "king": 1042,
      "qui": 1043,
      "study": 1044,
      "girl": 1045,
      "myself": 1046,
      "aurant": 1047,
      "coffee": 1048,
      "bank": 1049,
      "Wow": 1050,
      "ount": 1051,
      "ating": 1052,
      "expensive": 1053,
      "net": 1054,
      "water": 1055,
      "nothing": 1056,
      "mail": 1057,
      "ivers": 1058,
      "ng": 1059,
      "seat": 1060,
      "favor": 1061,
      "qual": 1062,
      "fr": 1063,
      "sc": 1064,
      "music": 1065,
      "20": 1066,
      "na": 1067,
      "top": 1068,
      "luck": 1069,
      "ices": 1070,
      "ship": 1071,
      "expect": 1072,
      "busy": 1073,
      "Joh": 1074,
      "ian": 1075,
      "product": 1076,
      "John": 1077,
      "apartment": 1078,
      "cha": 1079,
      "thinking": 1080,
      "Does": 1081,
      "pu": 1082,
      "matter": 1083,
      "ago": 1084,
      "unch": 1085,
      "spend": 1086,
      "guy": 1087,
      "until": 1088,
      "Mary": 1089,
      "Ne": 1090,
      "See": 1091,
      "bir": 1092,
      "iz": 1093,
      "thir": 1094,
      "reet": 1095,
      "adv": 1096,
      "actually": 1097,
      "bag": 1098,
      "cell": 1099,
      "both": 1100,
      "ries": 1101,
      "000": 1102,
      "probably": 1103,
      "restaurant": 1104,
      "30": 1105,
      "atur": 1106,
      "sol": 1107,
      "charge": 1108,
      "ages": 1109,
      "exam": 1110,
      "50": 1111,
      "seen": 1112,
      "maybe": 1113,
      "pick": 1114,
      "weather": 1115,
      "ient": 1116,
      "oint": 1117,
      "second": 1118,
      "actly": 1119,
      "called": 1120,
      "paper": 1121,
      "By": 1122,
      "ath": 1123,
      "ates": 1124,
      "clock": 1125,
      "au": 1126,
      "yester": 1127,
      "yesterday": 1128,
      "arm": 1129,
      "rain": 1130,
      "wife": 1131,
      "sid": 1132,
      "cold": 1133,
      "experience": 1134,
      "wear": 1135,
      "As": 1136,
      "smo": 1137,
      "trip": 1138,
      "sle": 1139,
      "though": 1140,
      "beg": 1141,
      "near": 1142,
      "Act": 1143,
      "suit": 1144,
      "possible": 1145,
      "half": 1146,
      "found": 1147,
      "yuan": 1148,
      "pas": 1149,
      "pri": 1150,
      "six": 1151,
      "happened": 1152,
      "Actually": 1153,
      "gy": 1154,
      "flight": 1155,
      "vac": 1156,
      "mach": 1157,
      "Every": 1158,
      "bye": 1159,
      "emplo": 1160,
      "az": 1161,
      "fre": 1162,
      "pleas": 1163,
      "ai": 1164,
      "terri": 1165,
      "manager": 1166,
      "suggest": 1167,
      "parents": 1168,
      "taking": 1169,
      "llow": 1170,
      "health": 1171,
      "sum": 1172,
      "iversity": 1173,
      "Li": 1174,
      "rect": 1175,
      "appoint": 1176,
      "credit": 1177,
      "cook": 1178,
      "sever": 1179,
      "almost": 1180,
      "sub": 1181,
      "prom": 1182,
      "boss": 1183,
      "Certainly": 1184,
      "ange": 1185,
      "position": 1186,
      "doctor": 1187,
      "ished": 1188,
      "deal": 1189,
      "aren": 1190,
      "cer": 1191,
      "ds": 1192,
      "ele": 1193,
      "New": 1194,
      "Fine": 1195,
      "band": 1196,
      "large": 1197,
      "thes": 1198,
      "clean": 1199,
      "hotel": 1200,
      "date": 1201,
      "ia": 1202,
      "serious": 1203,
      "birth": 1204,
      "department": 1205,
      "hur": 1206,
      "ring": 1207,
      "color": 1208,
      "present": 1209,
      "tract": 1210,
      "weeks": 1211,
      "several": 1212,
      "On": 1213,
      "cam": 1214,
      "gen": 1215,
      "ines": 1216,
      "Our": 1217,
      "bought": 1218,
      "cash": 1219,
      "sen": 1220,
      "wish": 1221,
      "travel": 1222,
      "Go": 1223,
      "bill": 1224,
      "val": 1225,
      "ones": 1226,
      "mend": 1227,
      "short": 1228,
      "team": 1229,
      "test": 1230,
      "perfect": 1231,
      "reci": 1232,
      "ters": 1233,
      "minute": 1234,
      "wn": 1235,
      "incl": 1236,
      "exc": 1237,
      "ject": 1238,
      "Smi": 1239,
      "par": 1240,
      "men": 1241,
      "ves": 1242,
      "hair": 1243,
      "park": 1244,
      "erc": 1245,
      "ational": 1246,
      "clothes": 1247,
      "Right": 1248,
      "once": 1249,
      "oose": 1250,
      "makes": 1251,
      "ents": 1252,
      "wanted": 1253,
      "calling": 1254,
      "uring": 1255,
      "ures": 1256,
      "Smith": 1257,
      "fl": 1258,
      "jing": 1259,
      "main": 1260,
      "pie": 1261,
      "rel": 1262,
      "reserv": 1263,
      "ved": 1264,
      "loc": 1265,
      "lost": 1266,
      "pop": 1267,
      "An": 1268,
      "ither": 1269,
      "sell": 1270,
      "commend": 1271,
      "gram": 1272,
      "At": 1273,
      "reason": 1274,
      "tory": 1275,
      "comes": 1276,
      "avail": 1277,
      "pack": 1278,
      "iday": 1279,
      "trans": 1280,
      "Un": 1281,
      "came": 1282,
      "Friday": 1283,
      "Mon": 1284,
      "pain": 1285,
      "pass": 1286,
      "sy": 1287,
      "tour": 1288,
      "custo": 1289,
      "ff": 1290,
      "recommend": 1291,
      "road": 1292,
      "saw": 1293,
      "diffic": 1294,
      "rather": 1295,
      "married": 1296,
      "One": 1297,
      "cli": 1298,
      "exerc": 1299,
      "ger": 1300,
      "swe": 1301,
      "sty": 1302,
      "arr": 1303,
      "everyone": 1304,
      "iss": 1305,
      "hold": 1306,
      "news": 1307,
      "talking": 1308,
      "visit": 1309,
      "children": 1310,
      "Sh": 1311,
      "TV": 1312,
      "sou": 1313,
      "early": 1314,
      "accept": 1315,
      "conf": 1316,
      "months": 1317,
      "begin": 1318,
      "available": 1319,
      "point": 1320,
      "appreci": 1321,
      "ced": 1322,
      "fact": 1323,
      "birthday": 1324,
      "hu": 1325,
      "ides": 1326,
      "ided": 1327,
      "tive": 1328,
      "size": 1329,
      "write": 1330,
      "Ab": 1331,
      "ics": 1332,
      "started": 1333,
      "Tom": 1334,
      "aper": 1335,
      "bar": 1336,
      "fit": 1337,
      "hite": 1338,
      "making": 1339,
      "wind": 1340,
      "key": 1341,
      "since": 1342,
      "grad": 1343,
      "ijing": 1344,
      "lunch": 1345,
      "wouldn": 1346,
      "Beijing": 1347,
      "shopping": 1348,
      "dra": 1349,
      "boy": 1350,
      "Af": 1351,
      "tast": 1352,
      "ork": 1353,
      "books": 1354,
      "return": 1355,
      "hes": 1356,
      "trying": 1357,
      "feeling": 1358,
      "After": 1359,
      "lan": 1360,
      "sleep": 1361,
      "summer": 1362,
      "resu": 1363,
      "char": 1364,
      "exactly": 1365,
      "couple": 1366,
      "whole": 1367,
      "favorite": 1368,
      "aw": 1369,
      "det": 1370,
      "pend": 1371,
      "sales": 1372,
      "gre": 1373,
      "reservation": 1374,
      "15": 1375,
      "dress": 1376,
      "mas": 1377,
      "ol": 1378,
      "stu": 1379,
      "trouble": 1380,
      "couldn": 1381,
      "ize": 1382,
      "tal": 1383,
      "street": 1384,
      "along": 1385,
      "tired": 1386,
      "solut": 1387,
      "fil": 1388,
      "zy": 1389,
      "least": 1390,
      "enter": 1391,
      "mother": 1392,
      "seem": 1393,
      "products": 1394,
      "young": 1395,
      "haps": 1396,
      "took": 1397,
      "problems": 1398,
      "De": 1399,
      "town": 1400,
      "choose": 1401,
      "says": 1402,
      "cr": 1403,
      "fac": 1404,
      "oot": 1405,
      "adam": 1406,
      "deposit": 1407,
      "cially": 1408,
      "wonderful": 1409,
      "report": 1410,
      "living": 1411,
      "face": 1412,
      "program": 1413,
      "spon": 1414,
      "pleasure": 1415,
      "flo": 1416,
      "tea": 1417,
      "store": 1418,
      "during": 1419,
      "seven": 1420,
      "door": 1421,
      "wasn": 1422,
      "comple": 1423,
      "undred": 1424,
      "hundred": 1425,
      "ital": 1426,
      "without": 1427,
      "quick": 1428,
      "chance": 1429,
      "Take": 1430,
      "pict": 1431,
      "Br": 1432,
      "Me": 1433,
      "Per": 1434,
      "Sounds": 1435,
      "bi": 1436,
      "forget": 1437,
      "depend": 1438,
      "build": 1439,
      "prof": 1440,
      "rate": 1441,
      "certainly": 1442,
      "ues": 1443,
      "ext": 1444,
      "cellent": 1445,
      "Very": 1446,
      "pol": 1447,
      "board": 1448,
      "drive": 1449,
      "sider": 1450,
      "appreciate": 1451,
      "ooked": 1452,
      "allow": 1453,
      "listen": 1454,
      "teacher": 1455,
      "appointment": 1456,
      "Miss": 1457,
      "Satur": 1458,
      "ative": 1459,
      "arri": 1460,
      "ility": 1461,
      "chang": 1462,
      "rence": 1463,
      "fif": 1464,
      "land": 1465,
      "respon": 1466,
      "weight": 1467,
      "box": 1468,
      "stra": 1469,
      "difficult": 1470,
      "ial": 1471,
      "whe": 1472,
      "sometimes": 1473,
      "contract": 1474,
      "consider": 1475,
      "Chr": 1476,
      "exercise": 1477,
      "Te": 1478,
      "bas": 1479,
      "lt": 1480,
      "sche": 1481,
      "ately": 1482,
      "12": 1483,
      "First": 1484,
      "ont": 1485,
      "surance": 1486,
      "father": 1487,
      "ane": 1488,
      "forward": 1489,
      "apply": 1490,
      "bot": 1491,
      "cup": 1492,
      "pur": 1493,
      "finite": 1494,
      "tax": 1495,
      "floor": 1496,
      "ident": 1497,
      "worked": 1498,
      "post": 1499,
      "IB": 1500,
      "catch": 1501,
      "ffic": 1502,
      "ister": 1503,
      "fully": 1504,
      "American": 1505,
      "receive": 1506,
      "Saturday": 1507,
      "either": 1508,
      "jor": 1509,
      "ling": 1510,
      "sick": 1511,
      "ator": 1512,
      "waiting": 1513,
      "Because": 1514,
      "tried": 1515,
      "decided": 1516,
      "hus": 1517,
      "question": 1518,
      "questions": 1519,
      "supposed": 1520,
      "vacation": 1521,
      "husband": 1522,
      "national": 1523,
      "means": 1524,
      "sun": 1525,
      "university": 1526,
      "major": 1527,
      "shall": 1528,
      "pan": 1529,
      "insurance": 1530,
      "ote": 1531,
      "needs": 1532,
      "langu": 1533,
      "Ro": 1534,
      "opp": 1535,
      "met": 1536,
      "hall": 1537,
      "conven": 1538,
      "popular": 1539,
      "past": 1540,
      "pair": 1541,
      "icken": 1542,
      "includ": 1543,
      "vir": 1544,
      "ins": 1545,
      "espe": 1546,
      "goes": 1547,
      "letter": 1548,
      "paid": 1549,
      "personal": 1550,
      "thirty": 1551,
      "ju": 1552,
      "asked": 1553,
      "cop": 1554,
      "extra": 1555,
      "Anything": 1556,
      "salary": 1557,
      "terrible": 1558,
      "cra": 1559,
      "igh": 1560,
      "vide": 1561,
      "lose": 1562,
      "pped": 1563,
      "solute": 1564,
      "aving": 1565,
      "mess": 1566,
      "ween": 1567,
      "join": 1568,
      "dance": 1569,
      "ping": 1570,
      "onest": 1571,
      "holi": 1572,
      "sale": 1573,
      "finished": 1574,
      "college": 1575,
      "recei": 1576,
      "Bye": 1577,
      "arch": 1578,
      "speaking": 1579,
      "foreign": 1580,
      "gradu": 1581,
      "100": 1582,
      "foot": 1583,
      "sof": 1584,
      "save": 1585,
      "uc": 1586,
      "esides": 1587,
      "hate": 1588,
      "follow": 1589,
      "rooms": 1590,
      "quality": 1591,
      "fall": 1592,
      "wine": 1593,
      "recent": 1594,
      "ature": 1595,
      "forgot": 1596,
      "traffic": 1597,
      "employe": 1598,
      "schedu": 1599,
      "outside": 1600,
      "enty": 1601,
      "partic": 1602,
      "twenty": 1603,
      "close": 1604,
      "astic": 1605,
      "between": 1606,
      "finish": 1607,
      "solutely": 1608,
      "mine": 1609,
      "yeah": 1610,
      "rela": 1611,
      "eng": 1612,
      "prepare": 1613,
      "shop": 1614,
      "especially": 1615,
      "relax": 1616,
      "Int": 1617,
      "Sir": 1618,
      "ahead": 1619,
      "cool": 1620,
      "fish": 1621,
      "winter": 1622,
      "pract": 1623,
      "attend": 1624,
      "Bob": 1625,
      "fair": 1626,
      "ness": 1627,
      "gets": 1628,
      "tele": 1629,
      "kids": 1630,
      "style": 1631,
      "pho": 1632,
      "inst": 1633,
      "aken": 1634,
      "ortun": 1635,
      "black": 1636,
      "finitely": 1637,
      "gra": 1638,
      "ub": 1639,
      "discus": 1640,
      "stuff": 1641,
      "eight": 1642,
      "nic": 1643,
      "chicken": 1644,
      "cks": 1645,
      "machine": 1646,
      "fresh": 1647,
      "clear": 1648,
      "ier": 1649,
      "tle": 1650,
      "treat": 1651,
      "fort": 1652,
      "Welcome": 1653,
      "teen": 1654,
      "reading": 1655,
      "Nice": 1656,
      "medi": 1657,
      "vert": 1658,
      "deli": 1659,
      "Wait": 1660,
      "gs": 1661,
      "vies": 1662,
      "anyway": 1663,
      "Christ": 1664,
      "Ste": 1665,
      "fig": 1666,
      "swi": 1667,
      "stead": 1668,
      "ctor": 1669,
      "gif": 1670,
      "kes": 1671,
      "ls": 1672,
      "mag": 1673,
      "taken": 1674,
      "vo": 1675,
      "movies": 1676,
      "excellent": 1677,
      "ield": 1678,
      "fix": 1679,
      "publ": 1680,
      "draw": 1681,
      "asses": 1682,
      "suc": 1683,
      "sim": 1684,
      "kinds": 1685,
      "sports": 1686,
      "docu": 1687,
      "America": 1688,
      "syste": 1689,
      "building": 1690,
      "ons": 1691,
      "Alright": 1692,
      "front": 1693,
      "smoking": 1694,
      "receipt": 1695,
      "online": 1696,
      "type": 1697,
      "ousand": 1698,
      "playing": 1699,
      "decis": 1700,
      "okay": 1701,
      "law": 1702,
      "takes": 1703,
      "become": 1704,
      "responsi": 1705,
      "mit": 1706,
      "enti": 1707,
      "cover": 1708,
      "using": 1709,
      "goods": 1710,
      "press": 1711,
      "tickets": 1712,
      "dro": 1713,
      "fa": 1714,
      "kit": 1715,
      "sort": 1716,
      "une": 1717,
      "passport": 1718,
      "window": 1719,
      "Jack": 1720,
      "cri": 1721,
      "chen": 1722,
      "da": 1723,
      "flow": 1724,
      "thousand": 1725,
      "nty": 1726,
      "plac": 1727,
      "single": 1728,
      "Tell": 1729,
      "York": 1730,
      "fash": 1731,
      "ual": 1732,
      "ude": 1733,
      "white": 1734,
      "super": 1735,
      "seeing": 1736,
      "project": 1737,
      "pres": 1738,
      "discount": 1739,
      "brother": 1740,
      "ili": 1741,
      "requi": 1742,
      "anc": 1743,
      "irt": 1744,
      "Mom": 1745,
      "About": 1746,
      "200": 1747,
      "eyes": 1748,
      "honest": 1749,
      "sound": 1750,
      "wed": 1751,
      "address": 1752,
      "Inter": 1753,
      "photo": 1754,
      "pin": 1755,
      "inve": 1756,
      "ross": 1757,
      "amount": 1758,
      "anyone": 1759,
      "log": 1760,
      "choice": 1761,
      "Christmas": 1762,
      "veget": 1763,
      "ulations": 1764,
      "countries": 1765,
      "gener": 1766,
      "Perhaps": 1767,
      "RIB": 1768,
      "Tr": 1769,
      "velo": 1770,
      "station": 1771,
      "worth": 1772,
      "Sometimes": 1773,
      "transfer": 1774,
      "complete": 1775,
      "recently": 1776,
      "kitchen": 1777,
      "Ac": 1778,
      "io": 1779,
      "mid": 1780,
      "total": 1781,
      "wants": 1782,
      "shoes": 1783,
      "design": 1784,
      "advice": 1785,
      "Monday": 1786,
      "fashion": 1787,
      "Ah": 1788,
      "ied": 1789,
      "madam": 1790,
      "por": 1791,
      "pet": 1792,
      "temp": 1793,
      "manage": 1794,
      "direct": 1795,
      "training": 1796,
      "lucky": 1797,
      "convenient": 1798,
      "double": 1799,
      "gone": 1800,
      "surpr": 1801,
      "kidding": 1802,
      "sense": 1803,
      "instead": 1804,
      "ref": 1805,
      "ings": 1806,
      "mention": 1807,
      "lovely": 1808,
      "internet": 1809,
      "straight": 1810,
      "opportun": 1811,
      "system": 1812,
      "field": 1813,
      "famous": 1814,
      "25": 1815,
      "ith": 1816,
      "ken": 1817,
      "nor": 1818,
      "ouch": 1819,
      "ific": 1820,
      "answ": 1821,
      "planning": 1822,
      "watching": 1823,
      "ountain": 1824,
      "detail": 1825,
      "sat": 1826,
      "leaving": 1827,
      "irm": 1828,
      "ties": 1829,
      "wash": 1830,
      "ention": 1831,
      "intro": 1832,
      "handle": 1833,
      "Dad": 1834,
      "Ho": 1835,
      "Ms": 1836,
      "site": 1837,
      "wan": 1838,
      "ills": 1839,
      "crazy": 1840,
      "Pe": 1841,
      "ber": 1842,
      "hit": 1843,
      "recor": 1844,
      "lead": 1845,
      "area": 1846,
      "riend": 1847,
      "word": 1848,
      "medic": 1849,
      "discuss": 1850,
      "Bo": 1851,
      "Besides": 1852,
      "Shall": 1853,
      "gent": 1854,
      "step": 1855,
      "search": 1856,
      "len": 1857,
      "neigh": 1858,
      "ilk": 1859,
      "others": 1860,
      "lots": 1861,
      "serve": 1862,
      "holiday": 1863,
      "definitely": 1864,
      "tru": 1865,
      "careful": 1866,
      "taste": 1867,
      "whether": 1868,
      "schedule": 1869,
      "public": 1870,
      "success": 1871,
      "decision": 1872,
      "grow": 1873,
      "pot": 1874,
      "round": 1875,
      "ants": 1876,
      "plans": 1877,
      "Comp": 1878,
      "language": 1879,
      "bath": 1880,
      "cas": 1881,
      "od": 1882,
      "song": 1883,
      "sister": 1884,
      "ught": 1885,
      "var": 1886,
      "heart": 1887,
      "These": 1888,
      "perfor": 1889,
      "applic": 1890,
      "ground": 1891,
      "strong": 1892,
      "promise": 1893,
      "exciting": 1894,
      "piece": 1895,
      "local": 1896,
      "soup": 1897,
      "hor": 1898,
      "phy": 1899,
      "heav": 1900,
      "educ": 1901,
      "ety": 1902,
      "contact": 1903,
      "Lon": 1904,
      "ption": 1905,
      "running": 1906,
      "particular": 1907,
      "London": 1908,
      "US": 1909,
      "furn": 1910,
      "ral": 1911,
      "sli": 1912,
      "wall": 1913,
      "ung": 1914,
      "blue": 1915,
      "ressed": 1916,
      "cret": 1917,
      "employees": 1918,
      "wedding": 1919,
      "Jim": 1920,
      "With": 1921,
      "org": 1922,
      "meat": 1923,
      "libr": 1924,
      "advert": 1925,
      "shouldn": 1926,
      "games": 1927,
      "film": 1928,
      "ford": 1929,
      "uture": 1930,
      "spaper": 1931,
      "student": 1932,
      "students": 1933,
      "example": 1934,
      "profess": 1935,
      "Dav": 1936,
      "Ke": 1937,
      "Mi": 1938,
      "Tai": 1939,
      "ric": 1940,
      "warm": 1941,
      "icy": 1942,
      "necess": 1943,
      "wondering": 1944,
      "decide": 1945,
      "breakfast": 1946,
      "future": 1947,
      "hang": 1948,
      "develo": 1949,
      "plain": 1950,
      "newspaper": 1951,
      "comfor": 1952,
      "desk": 1953,
      "elect": 1954,
      "gift": 1955,
      "library": 1956,
      "cat": 1957,
      "lad": 1958,
      "rid": 1959,
      "eter": 1960,
      "vern": 1961,
      "amaz": 1962,
      "longer": 1963,
      "mming": 1964,
      "scri": 1965,
      "quickly": 1966,
      "invest": 1967,
      "introdu": 1968,
      "fru": 1969,
      "percent": 1970,
      "brand": 1971,
      "Mrs": 1972,
      "places": 1973,
      "performan": 1974,
      "comfortable": 1975,
      "Bill": 1976,
      "den": 1977,
      "dam": 1978,
      "vate": 1979,
      "stick": 1980,
      "polic": 1981,
      "aff": 1982,
      "ches": 1983,
      "lfriend": 1984,
      "payment": 1985,
      "cording": 1986,
      "baby": 1987,
      "girlfriend": 1988,
      "regular": 1989,
      "studying": 1990,
      "Lo": 1991,
      "touch": 1992,
      "hai": 1993,
      "bene": 1994,
      "envir": 1995,
      "plenty": 1996,
      "dear": 1997,
      "ables": 1998,
      "rench": 1999,
      "driving": 2000,
      "promot": 2001,
      "depends": 2002,
      "football": 2003,
      "answer": 2004,
      "bal": 2005,
      "base": 2006,
      "secret": 2007,
      "exchange": 2008,
      "compan": 2009,
      "itional": 2010,
      "camer": 2011,
      "picture": 2012,
      "People": 2013,
      "bur": 2014,
      "dre": 2015,
      "fly": 2016,
      "om": 2017,
      "onment": 2018,
      "trad": 2019,
      "classes": 2020,
      "stock": 2021,
      "itting": 2022,
      "Most": 2023,
      "guys": 2024,
      "magaz": 2025,
      "amazing": 2026,
      "Jap": 2027,
      "Sund": 2028,
      "web": 2029,
      "mode": 2030,
      "tech": 2031,
      "works": 2032,
      "que": 2033,
      "afford": 2034,
      "ched": 2035,
      "print": 2036,
      "guest": 2037,
      "writing": 2038,
      "impro": 2039,
      "bedroom": 2040,
      "quiet": 2041,
      "satis": 2042,
      "heavy": 2043,
      "environment": 2044,
      "Sunday": 2045,
      "French": 2046,
      "Get": 2047,
      "Many": 2048,
      "oper": 2049,
      "pes": 2050,
      "govern": 2051,
      "aged": 2052,
      "Nothing": 2053,
      "asking": 2054,
      "correct": 2055,
      "attention": 2056,
      "excited": 2057,
      "green": 2058,
      "organ": 2059,
      "19": 2060,
      "Mar": 2061,
      "gain": 2062,
      "sand": 2063,
      "win": 2064,
      "cel": 2065,
      "spital": 2066,
      "grand": 2067,
      "Anyway": 2068,
      "arrange": 2069,
      "police": 2070,
      "Che": 2071,
      "Hmm": 2072,
      "ah": 2073,
      "cake": 2074,
      "sight": 2075,
      "acc": 2076,
      "compet": 2077,
      "club": 2078,
      "saying": 2079,
      "skin": 2080,
      "girls": 2081,
      "knew": 2082,
      "rat": 2083,
      "meal": 2084,
      "difference": 2085,
      "learned": 2086,
      "woman": 2087,
      "aught": 2088,
      "David": 2089,
      "Two": 2090,
      "daught": 2091,
      "oud": 2092,
      "erature": 2093,
      "delic": 2094,
      "space": 2095,
      "spect": 2096,
      "counter": 2097,
      "diet": 2098,
      "final": 2099,
      "blood": 2100,
      "rush": 2101,
      "plane": 2102,
      "current": 2103,
      "hurry": 2104,
      "figure": 2105,
      "companies": 2106,
      "cked": 2107,
      "ctive": 2108,
      "mers": 2109,
      "ned": 2110,
      "tain": 2111,
      "roll": 2112,
      "tific": 2113,
      "words": 2114,
      "compl": 2115,
      "carry": 2116,
      "learning": 2117,
      "healthy": 2118,
      "resume": 2119,
      "Mike": 2120,
      "performance": 2121,
      "11": 2122,
      "Give": 2123,
      "ID": 2124,
      "ded": 2125,
      "egg": 2126,
      "opin": 2127,
      "pat": 2128,
      "outh": 2129,
      "sel": 2130,
      "beer": 2131,
      "iced": 2132,
      "worried": 2133,
      "lugg": 2134,
      "eating": 2135,
      "enjoyed": 2136,
      "condition": 2137,
      "cream": 2138,
      "contin": 2139,
      "swimming": 2140,
      "simple": 2141,
      "necessary": 2142,
      "Tues": 2143,
      "gi": 2144,
      "ret": 2145,
      "ised": 2146,
      "staff": 2147,
      "lie": 2148,
      "notice": 2149,
      "except": 2150,
      "conne": 2151,
      "prices": 2152,
      "employ": 2153,
      "40": 2154,
      "mill": 2155,
      "mountain": 2156,
      "nine": 2157,
      "ising": 2158,
      "absolutely": 2159,
      "active": 2160,
      "mom": 2161,
      "hospital": 2162,
      "cards": 2163,
      "costs": 2164,
      "selves": 2165,
      "luggage": 2166,
      "18": 2167,
      "gave": 2168,
      "ted": 2169,
      "vous": 2170,
      "star": 2171,
      "lent": 2172,
      "ney": 2173,
      "within": 2174,
      "anymore": 2175,
      "load": 2176,
      "mum": 2177,
      "aster": 2178,
      "spot": 2179,
      "jobs": 2180,
      "history": 2181,
      "details": 2182,
      "application": 2183,
      "government": 2184,
      "Jo": 2185,
      "Wang": 2186,
      "cert": 2187,
      "eye": 2188,
      "cannot": 2189,
      "somewhere": 2190,
      "assist": 2191,
      "nervous": 2192,
      "copy": 2193,
      "medicine": 2194,
      "neighbor": 2195,
      "blo": 2196,
      "ior": 2197,
      "ride": 2198,
      "sci": 2199,
      "ond": 2200,
      "season": 2201,
      "dog": 2202,
      "rol": 2203,
      "Isn": 2204,
      "telling": 2205,
      "Goodbye": 2206,
      "private": 2207,
      "ancing": 2208,
      "vegetables": 2209,
      "daughter": 2210,
      "Tuesday": 2211,
      "Gr": 2212,
      "flu": 2213,
      "fits": 2214,
      "gar": 2215,
      "mater": 2216,
      "given": 2217,
      "buying": 2218,
      "finally": 2219,
      "drinks": 2220,
      "taxi": 2221,
      "received": 2222,
      "Next": 2223,
      "hind": 2224,
      "mist": 2225,
      "oc": 2226,
      "inside": 2227,
      "lect": 2228,
      "yours": 2229,
      "provide": 2230,
      "dire": 2231,
      "higher": 2232,
      "Everything": 2233,
      "cooking": 2234,
      "sweet": 2235,
      "Company": 2236,
      "develop": 2237,
      "Dan": 2238,
      "Ju": 2239,
      "Se": 2240,
      "gas": 2241,
      "ks": 2242,
      "match": 2243,
      "ug": 2244,
      "incre": 2245,
      "lier": 2246,
      "ability": 2247,
      "shirt": 2248,
      "uses": 2249,
      "anger": 2250,
      "latest": 2251,
      "Sus": 2252,
      "cars": 2253,
      "dist": 2254,
      "kill": 2255,
      "war": 2256,
      "issu": 2257,
      "loan": 2258,
      "concert": 2259,
      "items": 2260,
      "airport": 2261,
      "lately": 2262,
      "corner": 2263,
      "famili": 2264,
      "package": 2265,
      "message": 2266,
      "documents": 2267,
      "anim": 2268,
      "ancy": 2269,
      "menu": 2270,
      "state": 2271,
      "section": 2272,
      "behind": 2273,
      "ica": 2274,
      "likes": 2275,
      "ional": 2276,
      "spent": 2277,
      "overtime": 2278,
      "mbers": 2279,
      "appro": 2280,
      "subway": 2281,
      "parking": 2282,
      "500": 2283,
      "fur": 2284,
      "lack": 2285,
      "pounds": 2286,
      "ors": 2287,
      "ower": 2288,
      "proper": 2289,
      "cheap": 2290,
      "descri": 2291,
      "skills": 2292,
      "Steven": 2293,
      "gree": 2294,
      "slow": 2295,
      "vered": 2296,
      "beef": 2297,
      "ically": 2298,
      "covered": 2299,
      "cheaper": 2300,
      "courses": 2301,
      "vision": 2302,
      "choco": 2303,
      "relation": 2304,
      "customers": 2305,
      "Internet": 2306,
      "fruit": 2307,
      "Susan": 2308,
      "Day": 2309,
      "Hot": 2310,
      "Wor": 2311,
      "dle": 2312,
      "fu": 2313,
      "fat": 2314,
      "sme": 2315,
      "vid": 2316,
      "ense": 2317,
      "icle": 2318,
      "antastic": 2319,
      "ilities": 2320,
      "driver": 2321,
      "regis": 2322,
      "gym": 2323,
      "customer": 2324,
      "require": 2325,
      "dream": 2326,
      "improve": 2327,
      "cand": 2328,
      "lay": 2329,
      "uce": 2330,
      "onna": 2331,
      "ener": 2332,
      "shi": 2333,
      "Those": 2334,
      "indust": 2335,
      "collect": 2336,
      "mission": 2337,
      "charg": 2338,
      "factory": 2339,
      "changed": 2340,
      "delivery": 2341,
      "flowers": 2342,
      "policy": 2343,
      "Make": 2344,
      "Pro": 2345,
      "gage": 2346,
      "itor": 2347,
      "non": 2348,
      "nes": 2349,
      "leg": 2350,
      "beach": 2351,
      "sometime": 2352,
      "happens": 2353,
      "moved": 2354,
      "completely": 2355,
      "delicious": 2356,
      "giving": 2357,
      "Jane": 2358,
      "apo": 2359,
      "mate": 2360,
      "snow": 2361,
      "ache": 2362,
      "willing": 2363,
      "explain": 2364,
      "dead": 2365,
      "trade": 2366,
      "commu": 2367,
      "Didn": 2368,
      "cents": 2369,
      "broke": 2370,
      "third": 2371,
      "God": 2372,
      "University": 2373,
      "soft": 2374,
      "management": 2375,
      "opinion": 2376,
      "--": 2377,
      "Mark": 2378,
      "bon": 2379,
      "liked": 2380,
      "brought": 2381,
      "international": 2382,
      "impress": 2383,
      "against": 2384,
      "anghai": 2385,
      "period": 2386,
      "salad": 2387,
      "Or": 2388,
      "bly": 2389,
      "gonna": 2390,
      "tall": 2391,
      "itions": 2392,
      "logy": 2393,
      "urs": 2394,
      "exp": 2395,
      "grou": 2396,
      "dishes": 2397,
      "hurt": 2398,
      "charac": 2399,
      "Brown": 2400,
      "practice": 2401,
      "accident": 2402,
      "Cong": 2403,
      "Mic": 2404,
      "dry": 2405,
      "econ": 2406,
      "lts": 2407,
      "pull": 2408,
      "squ": 2409,
      "remind": 2410,
      "mes": 2411,
      "iture": 2412,
      "stea": 2413,
      "lies": 2414,
      "worse": 2415,
      "checking": 2416,
      "fire": 2417,
      "funny": 2418,
      "control": 2419,
      "effect": 2420,
      "borrow": 2421,
      "pictures": 2422,
      "fifteen": 2423,
      "telephone": 2424,
      "complain": 2425,
      "increase": 2426,
      "Congrat": 2427,
      "His": 2428,
      "Jen": 2429,
      "dess": 2430,
      "sco": 2431,
      "wise": 2432,
      "throw": 2433,
      "alright": 2434,
      "coat": 2435,
      "withdraw": 2436,
      "terms": 2437,
      "unk": 2438,
      "cap": 2439,
      "paying": 2440,
      "div": 2441,
      "usual": 2442,
      "fortun": 2443,
      "opportunity": 2444,
      "truth": 2445,
      "16": 2446,
      "booked": 2447,
      "ile": 2448,
      "nis": 2449,
      "natur": 2450,
      "ances": 2451,
      "lebr": 2452,
      "ens": 2453,
      "abroad": 2454,
      "tiv": 2455,
      "celebr": 2456,
      "ference": 2457,
      "quar": 2458,
      "twice": 2459,
      "bottle": 2460,
      "Hotel": 2461,
      "dessert": 2462,
      "Bank": 2463,
      "Park": 2464,
      "Um": 2465,
      "honey": 2466,
      "hung": 2467,
      "prescri": 2468,
      "action": 2469,
      "story": 2470,
      "earlier": 2471,
      "support": 2472,
      "stern": 2473,
      "middle": 2474,
      "education": 2475,
      "camera": 2476,
      "Fo": 2477,
      "dancing": 2478,
      "uro": 2479,
      "vin": 2480,
      "stress": 2481,
      "ays": 2482,
      "alone": 2483,
      "process": 2484,
      "illy": 2485,
      "ideas": 2486,
      "stor": 2487,
      "player": 2488,
      "services": 2489,
      "turned": 2490,
      "appe": 2491,
      "Shanghai": 2492,
      "results": 2493,
      "pressure": 2494,
      "further": 2495,
      "chocolate": 2496,
      "Congratulations": 2497,
      "Lu": 2498,
      "Par": 2499,
      "dish": 2500,
      "dark": 2501,
      "oil": 2502,
      "rout": 2503,
      "reli": 2504,
      "tom": 2505,
      "wel": 2506,
      "aret": 2507,
      "moving": 2508,
      "Thurs": 2509,
      "quit": 2510,
      "spring": 2511,
      "speed": 2512,
      "airs": 2513,
      "immedi": 2514,
      "apple": 2515,
      "responsible": 2516,
      "furniture": 2517,
      "Man": 2518,
      "Po": 2519,
      "Yuan": 2520,
      "cult": 2521,
      "jam": 2522,
      "spo": 2523,
      "kept": 2524,
      "degree": 2525,
      "raise": 2526,
      "poll": 2527,
      "tennis": 2528,
      "imag": 2529,
      "hands": 2530,
      "share": 2531,
      "boring": 2532,
      "women": 2533,
      "Only": 2534,
      "drop": 2535,
      "White": 2536,
      "cu": 2537,
      "cal": 2538,
      "crow": 2539,
      "equ": 2540,
      "pic": 2541,
      "pity": 2542,
      "za": 2543,
      "vent": 2544,
      "tered": 2545,
      "checked": 2546,
      "broken": 2547,
      "beginning": 2548,
      "introduce": 2549,
      "Gre": 2550,
      "Pr": 2551,
      "Peter": 2552,
      "Room": 2553,
      "chat": 2554,
      "fight": 2555,
      "milk": 2556,
      "ris": 2557,
      "sn": 2558,
      "scre": 2559,
      "tre": 2560,
      "vious": 2561,
      "stairs": 2562,
      "seme": 2563,
      "sold": 2564,
      "note": 2565,
      "tran": 2566,
      "missed": 2567,
      "staying": 2568,
      "lower": 2569,
      "camp": 2570,
      "flat": 2571,
      "record": 2572,
      "Taiwan": 2573,
      "promotion": 2574,
      "Aust": 2575,
      "Even": 2576,
      "XX": 2577,
      "certain": 2578,
      "ience": 2579,
      "imum": 2580,
      "looked": 2581,
      "tur": 2582,
      "oub": 2583,
      "ann": 2584,
      "according": 2585,
      "tie": 2586,
      "hibit": 2587,
      "concer": 2588,
      "spicy": 2589,
      "common": 2590,
      "served": 2591,
      "lights": 2592,
      "dollar": 2593,
      "colleag": 2594,
      "bags": 2595,
      "Like": 2596,
      "fifty": 2597,
      "purcha": 2598,
      "juice": 2599,
      "smell": 2600,
      "hungry": 2601,
      "semester": 2602,
      "80": 2603,
      "Con": 2604,
      "Ha": 2605,
      "Happ": 2606,
      "Last": 2607,
      "bother": 2608,
      "bread": 2609,
      "bility": 2610,
      "fund": 2611,
      "nel": 2612,
      "aches": 2613,
      "till": 2614,
      "situ": 2615,
      "easier": 2616,
      "Street": 2617,
      "allowed": 2618,
      "Thursday": 2619,
      "Happy": 2620,
      "Gu": 2621,
      "Ma": 2622,
      "Pa": 2623,
      "Since": 2624,
      "bow": 2625,
      "ese": 2626,
      "fle": 2627,
      "wat": 2628,
      "wood": 2629,
      "wast": 2630,
      "ancial": 2631,
      "acket": 2632,
      "anywhere": 2633,
      "knowled": 2634,
      "hob": 2635,
      "arden": 2636,
      "spare": 2637,
      "ists": 2638,
      "Remember": 2639,
      "Exactly": 2640,
      "career": 2641,
      "easily": 2642,
      "wards": 2643,
      "walking": 2644,
      "subject": 2645,
      "Should": 2646,
      "arrive": 2647,
      "prepared": 2648,
      "fault": 2649,
      "13": 2650,
      "Hong": 2651,
      "Lin": 2652,
      "Ti": 2653,
      "fantastic": 2654,
      "memor": 2655,
      "ency": 2656,
      "motor": 2657,
      "starting": 2658,
      "keeping": 2659,
      "smart": 2660,
      "drinking": 2661,
      "conditions": 2662,
      "States": 2663,
      "invol": 2664,
      "scen": 2665,
      "shipment": 2666,
      "expected": 2667,
      "confirm": 2668,
      "jump": 2669,
      "Green": 2670,
      "Never": 2671,
      "cast": 2672,
      "fare": 2673,
      "mitt": 2674,
      "ord": 2675,
      "Ital": 2676,
      "term": 2677,
      "nose": 2678,
      "trust": 2679,
      "safe": 2680,
      "everybody": 2681,
      "glass": 2682,
      "standard": 2683,
      "mistake": 2684,
      "born": 2685,
      "Everyone": 2686,
      "graduate": 2687,
      "temperature": 2688,
      "fortunately": 2689,
      "24": 2690,
      "Euro": 2691,
      "cig": 2692,
      "doub": 2693,
      "hood": 2694,
      "ials": 2695,
      "ki": 2696,
      "ination": 2697,
      "orge": 2698,
      "activ": 2699,
      "However": 2700,
      "uni": 2701,
      "offic": 2702,
      "tration": 2703,
      "caught": 2704,
      "fied": 2705,
      "miles": 2706,
      "invite": 2707,
      "seats": 2708,
      "website": 2709,
      "Austral": 2710,
      "60": 2711,
      "Car": 2712,
      "Hu": 2713,
      "Jan": 2714,
      "dut": 2715,
      "jour": 2716,
      "lines": 2717,
      "rad": 2718,
      "oun": 2719,
      "itch": 2720,
      "forty": 2721,
      "adays": 2722,
      "knows": 2723,
      "bud": 2724,
      "due": 2725,
      "marri": 2726,
      "homework": 2727,
      "nights": 2728,
      "chall": 2729,
      "video": 2730,
      "Hope": 2731,
      "Madam": 2732,
      "Su": 2733,
      "hon": 2734,
      "lab": 2735,
      "mand": 2736,
      "nut": 2737,
      "tough": 2738,
      "tail": 2739,
      "tot": 2740,
      "sea": 2741,
      "known": 2742,
      "noticed": 2743,
      "perhaps": 2744,
      "saving": 2745,
      "guar": 2746,
      "license": 2747,
      "reasonable": 2748,
      "boxes": 2749,
      "including": 2750,
      "Cor": 2751,
      "Oly": 2752,
      "Say": 2753,
      "Wed": 2754,
      "bid": 2755,
      "dad": 2756,
      "email": 2757,
      "ival": 2758,
      "zen": 2759,
      "reme": 2760,
      "level": 2761,
      "neck": 2762,
      "Three": 2763,
      "propo": 2764,
      "ilt": 2765,
      "calls": 2766,
      "gives": 2767,
      "fried": 2768,
      "avo": 2769,
      "standing": 2770,
      "shows": 2771,
      "ized": 2772,
      "smoke": 2773,
      "anese": 2774,
      "included": 2775,
      "instru": 2776,
      "norm": 2777,
      "washing": 2778,
      "advertise": 2779,
      "tificate": 2780,
      "connect": 2781,
      "animals": 2782,
      "apolog": 2783,
      "divor": 2784,
      "natural": 2785,
      "Olymp": 2786,
      "Honey": 2787,
      "Uh": 2788,
      "cable": 2789,
      "tend": 2790,
      "ys": 2791,
      "meters": 2792,
      "stru": 2793,
      "irts": 2794,
      "hoping": 2795,
      "deep": 2796,
      "needed": 2797,
      "poor": 2798,
      "erson": 2799,
      "Today": 2800,
      "deser": 2801,
      "agreement": 2802,
      "marketing": 2803,
      "expecting": 2804,
      "passed": 2805,
      "pieces": 2806,
      "Keep": 2807,
      "familiar": 2808,
      "industry": 2809,
      "Paul": 2810,
      "Ger": 2811,
      "Ind": 2812,
      "pm": 2813,
      "sw": 2814,
      "wra": 2815,
      "tomat": 2816,
      "ooth": 2817,
      "ada": 2818,
      "suits": 2819,
      "tern": 2820,
      "spec": 2821,
      "finding": 2822,
      "financial": 2823,
      "lives": 2824,
      "computers": 2825,
      "faster": 2826,
      "advant": 2827,
      "Ann": 2828,
      "sweater": 2829,
      "benefits": 2830,
      "immediately": 2831,
      "transport": 2832,
      "totally": 2833,
      "Wednes": 2834,
      "Rob": 2835,
      "danger": 2836,
      "ped": 2837,
      "rice": 2838,
      "rich": 2839,
      "ley": 2840,
      "habit": 2841,
      "felt": 2842,
      "ified": 2843,
      "urgent": 2844,
      "excuse": 2845,
      "decl": 2846,
      "upset": 2847,
      "built": 2848,
      "played": 2849,
      "rules": 2850,
      "visa": 2851,
      "ski": 2852,
      "Also": 2853,
      "mploy": 2854,
      "baggage": 2855,
      "include": 2856,
      "United": 2857,
      "Absolutely": 2858,
      "basket": 2859,
      "traditional": 2860,
      "eggs": 2861,
      "Wednesday": 2862,
      "45": 2863,
      "center": 2864,
      "lar": 2865,
      "mood": 2866,
      "power": 2867,
      "yo": 2868,
      "ying": 2869,
      "research": 2870,
      "seas": 2871,
      "owe": 2872,
      "ooper": 2873,
      "express": 2874,
      "exhibit": 2875,
      "whatever": 2876,
      "helpful": 2877,
      "simp": 2878,
      "pleasant": 2879,
      "engine": 2880,
      "fax": 2881,
      "successful": 2882,
      "professional": 2883,
      "relationship": 2884,
      "colleagues": 2885,
      "purchase": 2886,
      "doubt": 2887,
      "guarant": 2888,
      "mployment": 2889,
      "Ad": 2890,
      "Bar": 2891,
      "From": 2892,
      "Mac": 2893,
      "PC": 2894,
      "Ser": 2895,
      "Sar": 2896,
      "Span": 2897,
      "garden": 2898,
      "lit": 2899,
      "ming": 2900,
      "pool": 2901,
      "wake": 2902,
      "vell": 2903,
      "cock": 2904,
      "decor": 2905,
      "cheese": 2906,
      "himself": 2907,
      "formal": 2908,
      "laund": 2909,
      "earth": 2910,
      "clients": 2911,
      "bottom": 2912,
      "guests": 2913,
      "waste": 2914,
      "knowledge": 2915,
      "cigaret": 2916,
      "kilo": 2917,
      "Spanish": 2918,
      "300": 2919,
      "Was": 2920,
      "Year": 2921,
      "fice": 2922,
      "fai": 2923,
      "sitting": 2924,
      "anti": 2925,
      "meals": 2926,
      "weak": 2927,
      "col": 2928,
      "tight": 2929,
      "moder": 2930,
      "dered": 2931,
      "helping": 2932,
      "hasn": 2933,
      "friendly": 2934,
      "starts": 2935,
      "keeps": 2936,
      "experien": 2937,
      "cleaning": 2938,
      "painting": 2939,
      "huh": 2940,
      "bike": 2941,
      "deliver": 2942,
      "general": 2943,
      "surprised": 2944,
      "bathroom": 2945,
      "secretary": 2946,
      "issue": 2947,
      "marriage": 2948,
      "apologize": 2949,
      "Bet": 2950,
      "Her": 2951,
      "Mmm": 2952,
      "Pre": 2953,
      "bri": 2954,
      "creat": 2955,
      "mic": 2956,
      "lly": 2957,
      "negot": 2958,
      "cancel": 2959,
      "tire": 2960,
      "promis": 2961,
      "aker": 2962,
      "tractive": 2963,
      "tware": 2964,
      "stores": 2965,
      "itten": 2966,
      "leaves": 2967,
      "shape": 2968,
      "champ": 2969,
      "advance": 2970,
      "pril": 2971,
      "colors": 2972,
      "traveling": 2973,
      "boyfriend": 2974,
      "television": 2975,
      "graph": 2976,
      "magazine": 2977,
      "continue": 2978,
      "group": 2979,
      "campus": 2980,
      "situation": 2981,
      "laundry": 2982,
      "negoti": 2983,
      "bright": 2984,
      "mouth": 2985,
      "ni": 2986,
      "thor": 2987,
      "attractive": 2988,
      "erry": 2989,
      "vey": 2990,
      "beat": 2991,
      "dest": 2992,
      "useful": 2993,
      "ended": 2994,
      "parts": 2995,
      "prote": 2996,
      "appli": 2997,
      "impressed": 2998,
      "cared": 2999,
      "foods": 3000,
      "bigger": 3001,
      "schools": 3002,
      "mix": 3003,
      "understanding": 3004,
      "invited": 3005,
      "izza": 3006,
      "suggestions": 3007,
      "human": 3008,
      "software": 3009,
      "document": 3010,
      "Jenny": 3011,
      "Mor": 3012,
      "cab": 3013,
      "fing": 3014,
      "ieve": 3015,
      "umb": 3016,
      "reserve": 3017,
      "ali": 3018,
      "fees": 3019,
      "button": 3020,
      "ames": 3021,
      "monthly": 3022,
      "angry": 3023,
      "push": 3024,
      "nearly": 3025,
      "Once": 3026,
      "valu": 3027,
      "paint": 3028,
      "climb": 3029,
      "listening": 3030,
      "Account": 3031,
      "surprise": 3032,
      "describe": 3033,
      "Ar": 3034,
      "Air": 3035,
      "April": 3036,
      "Qu": 3037,
      "sca": 3038,
      "itude": 3039,
      "dogs": 3040,
      "ads": 3041,
      "nowadays": 3042,
      "among": 3043,
      "export": 3044,
      "delive": 3045,
      "pper": 3046,
      "stories": 3047,
      "loves": 3048,
      "cases": 3049,
      "programs": 3050,
      "various": 3051,
      "Japan": 3052,
      "communic": 3053,
      "prescription": 3054,
      "delivered": 3055,
      "Har": 3056,
      "Le": 3057,
      "Rich": 3058,
      "Won": 3059,
      "ax": 3060,
      "cooper": 3061,
      "firm": 3062,
      "ix": 3063,
      "iel": 3064,
      "mall": 3065,
      "sion": 3066,
      "vot": 3067,
      "reach": 3068,
      "review": 3069,
      "held": 3070,
      "iring": 3071,
      "fell": 3072,
      "feet": 3073,
      "text": 3074,
      "noise": 3075,
      "quet": 3076,
      "cla": 3077,
      "everyday": 3078,
      "guide": 3079,
      "written": 3080,
      "Office": 3081,
      "visiting": 3082,
      "stayed": 3083,
      "wearing": 3084,
      "machines": 3085,
      "gency": 3086,
      "huge": 3087,
      "atives": 3088,
      "arrived": 3089,
      "graduated": 3090,
      "photos": 3091,
      "phys": 3092,
      "Japanese": 3093,
      "pollut": 3094,
      "imagine": 3095,
      "screen": 3096,
      "Europe": 3097,
      "Australia": 3098,
      "simply": 3099,
      "14": 3100,
      "Try": 3101,
      "cir": 3102,
      "eth": 3103,
      "loud": 3104,
      "saf": 3105,
      "zer": 3106,
      "ths": 3107,
      "ined": 3108,
      "retire": 3109,
      "heat": 3110,
      "arling": 3111,
      "ently": 3112,
      "consu": 3113,
      "track": 3114,
      "mostly": 3115,
      "closed": 3116,
      "shower": 3117,
      "older": 3118,
      "Tomorrow": 3119,
      "ashing": 3120,
      "headache": 3121,
      "nearby": 3122,
      "crit": 3123,
      "steak": 3124,
      "90": 3125,
      "Hold": 3126,
      "buses": 3127,
      "page": 3128,
      "ror": 3129,
      "sam": 3130,
      "wal": 3131,
      "ony": 3132,
      "lend": 3133,
      "bell": 3134,
      "forms": 3135,
      "lia": 3136,
      "rob": 3137,
      "shot": 3138,
      "agre": 3139,
      "plastic": 3140,
      "workers": 3141,
      "helps": 3142,
      "sheet": 3143,
      "everywhere": 3144,
      "appet": 3145,
      "harder": 3146,
      "lap": 3147,
      "rency": 3148,
      "file": 3149,
      "sugar": 3150,
      "suitable": 3151,
      "films": 3152,
      "changes": 3153,
      "medium": 3154,
      "refund": 3155,
      "wanna": 3156,
      "vari": 3157,
      "magazines": 3158,
      "model": 3159,
      "million": 3160,
      "crowded": 3161,
      "equip": 3162,
      "budget": 3163,
      "specific": 3164,
      "17": 3165,
      "23": 3166,
      "55": 3167,
      "Black": 3168,
      "cot": 3169,
      "omy": 3170,
      "scared": 3171,
      "vi": 3172,
      "stam": 3173,
      "ham": 3174,
      "bear": 3175,
      "rible": 3176,
      "across": 3177,
      "upid": 3178,
      "tooth": 3179,
      "conference": 3180,
      "helped": 3181,
      "complic": 3182,
      "spection": 3183,
      "bran": 3184,
      "brown": 3185,
      "carpet": 3186,
      "hardly": 3187,
      "biggest": 3188,
      "sett": 3189,
      "production": 3190,
      "strange": 3191,
      "value": 3192,
      "points": 3193,
      "bile": 3194,
      "opportunities": 3195,
      "electric": 3196,
      "sandw": 3197,
      "assistant": 3198,
      "science": 3199,
      "materials": 3200,
      "celebrate": 3201,
      "watched": 3202,
      "involved": 3203,
      "avoid": 3204,
      "Fin": 3205,
      "Got": 3206,
      "Kong": 3207,
      "Nor": 3208,
      "cart": 3209,
      "cities": 3210,
      "muse": 3211,
      "rup": 3212,
      "tu": 3213,
      "anci": 3214,
      "orig": 3215,
      "ises": 3216,
      "stri": 3217,
      "leep": 3218,
      "ared": 3219,
      "Whatever": 3220,
      "ourselves": 3221,
      "hill": 3222,
      "stomach": 3223,
      "marry": 3224,
      "mates": 3225,
      "More": 3226,
      "solve": 3227,
      "packing": 3228,
      "bargain": 3229,
      "talked": 3230,
      "supermarket": 3231,
      "director": 3232,
      "square": 3233,
      "mitted": 3234,
      "Italian": 3235,
      "activities": 3236,
      "modern": 3237,
      "Dr": 3238,
      "emp": 3239,
      "pian": 3240,
      "ran": 3241,
      "rare": 3242,
      "silly": 3243,
      "tree": 3244,
      "warr": 3245,
      "repair": 3246,
      "respect": 3247,
      "itation": 3248,
      "hael": 3249,
      "shar": 3250,
      "fever": 3251,
      "urch": 3252,
      "ctions": 3253,
      "hire": 3254,
      "nobody": 3255,
      "ilar": 3256,
      "produce": 3257,
      "opening": 3258,
      "smaller": 3259,
      "effic": 3260,
      "strict": 3261,
      "Monica": 3262,
      "languages": 3263,
      "fixed": 3264,
      "unemployment": 3265,
      "damage": 3266,
      "based": 3267,
      "organiz": 3268,
      "Prof": 3269,
      "orders": 3270,
      "duty": 3271,
      "dangerous": 3272,
      "origin": 3273,
      "Ben": 3274,
      "List": 3275,
      "Other": 3276,
      "Sep": 3277,
      "cto": 3278,
      "cross": 3279,
      "ire": 3280,
      "nal": 3281,
      "ners": 3282,
      "ron": 3283,
      "toast": 3284,
      "meas": 3285,
      "ison": 3286,
      "lim": 3287,
      "lift": 3288,
      "tery": 3289,
      "deed": 3290,
      "Doctor": 3291,
      "uncle": 3292,
      "sauce": 3293,
      "feels": 3294,
      "ptions": 3295,
      "numbers": 3296,
      "achieve": 3297,
      "possi": 3298,
      "swim": 3299,
      "voice": 3300,
      "similar": 3301,
      "daily": 3302,
      "pressed": 3303,
      "bonus": 3304,
      "German": 3305,
      "basketball": 3306,
      "guarantee": 3307,
      "warrant": 3308,
      "Bu": 3309,
      "City": 3310,
      "Spe": 3311,
      "bat": 3312,
      "dden": 3313,
      "emer": 3314,
      "ging": 3315,
      "kick": 3316,
      "pal": 3317,
      "rance": 3318,
      "vote": 3319,
      "zz": 3320,
      "ordered": 3321,
      "stren": 3322,
      "secur": 3323,
      "bec": 3324,
      "soci": 3325,
      "social": 3326,
      "limit": 3327,
      "code": 3328,
      "roses": 3329,
      "ached": 3330,
      "gold": 3331,
      "sudden": 3332,
      "ify": 3333,
      "spir": 3334,
      "minimum": 3335,
      "downtown": 3336,
      "corpor": 3337,
      "lived": 3338,
      "brea": 3339,
      "currency": 3340,
      "located": 3341,
      "Brit": 3342,
      "ential": 3343,
      "directly": 3344,
      "Check": 3345,
      "Joe": 3346,
      "registered": 3347,
      "character": 3348,
      "score": 3349,
      "radio": 3350,
      "challeng": 3351,
      "promised": 3352,
      "claim": 3353,
      "complicated": 3354,
      "streng": 3355,
      "Cl": 3356,
      "Ge": 3357,
      "cket": 3358,
      "mot": 3359,
      "tes": 3360,
      "indeed": 3361,
      "ato": 3362,
      "stupid": 3363,
      "encour": 3364,
      "wet": 3365,
      "wide": 3366,
      "dozen": 3367,
      "idence": 3368,
      "acked": 3369,
      "amb": 3370,
      "mobile": 3371,
      "typ": 3372,
      "background": 3373,
      "carefully": 3374,
      "files": 3375,
      "register": 3376,
      "cute": 3377,
      "hurts": 3378,
      "selling": 3379,
      "younger": 3380,
      "extreme": 3381,
      "flying": 3382,
      "satisfied": 3383,
      "Grand": 3384,
      "Daniel": 3385,
      "Paris": 3386,
      "savings": 3387,
      "Pretty": 3388,
      "Listen": 3389,
      "150": 3390,
      "Cur": 3391,
      "Lee": 3392,
      "Octo": 3393,
      "Rose": 3394,
      "ais": 3395,
      "cine": 3396,
      "cru": 3397,
      "pizza": 3398,
      "sour": 3399,
      "renew": 3400,
      "ory": 3401,
      "isa": 3402,
      "leather": 3403,
      "Were": 3404,
      "plant": 3405,
      "ulous": 3406,
      "prepar": 3407,
      "commission": 3408,
      "assign": 3409,
      "breath": 3410,
      "accounting": 3411,
      "regard": 3412,
      "Alice": 3413,
      "certificate": 3414,
      "seriously": 3415,
      "horrible": 3416,
      "Lucy": 3417,
      "univer": 3418,
      "October": 3419,
      "Fe": 3420,
      "Person": 3421,
      "South": 3422,
      "ban": 3423,
      "har": 3424,
      "inspection": 3425,
      "church": 3426,
      "idge": 3427,
      "abo": 3428,
      "plus": 3429,
      "pleased": 3430,
      "gotten": 3431,
      "boat": 3432,
      "Canada": 3433,
      "overseas": 3434,
      "studied": 3435,
      "terribly": 3436,
      "presentation": 3437,
      "awful": 3438,
      "boarding": 3439,
      "virus": 3440,
      "occas": 3441,
      "Michael": 3442,
      "snack": 3443,
      "concerned": 3444,
      "larger": 3445,
      "sample": 3446,
      "variety": 3447,
      "Cool": 3448,
      "bra": 3449,
      "dig": 3450,
      "darling": 3451,
      "emb": 3452,
      "gn": 3453,
      "gate": 3454,
      "iv": 3455,
      "ome": 3456,
      "range": 3457,
      "sad": 3458,
      "shel": 3459,
      "ware": 3460,
      "annu": 3461,
      "seng": 3462,
      "separ": 3463,
      "argu": 3464,
      "west": 3465,
      "abl": 3466,
      "god": 3467,
      "irty": 3468,
      "Tho": 3469,
      "prov": 3470,
      "surely": 3471,
      "travell": 3472,
      "disappoint": 3473,
      "tribut": 3474,
      "accounts": 3475,
      "beauty": 3476,
      "cycle": 3477,
      "ception": 3478,
      "Frank": 3479,
      "Americans": 3480,
      "expenses": 3481,
      "suggestion": 3482,
      "elev": 3483,
      "difficul": 3484,
      "tastes": 3485,
      "basic": 3486,
      "employee": 3487,
      "Both": 3488,
      "Probably": 3489,
      "legal": 3490,
      "quarter": 3491,
      "welve": 3492,
      "settled": 3493,
      "Profess": 3494,
      "AB": 3495,
      "Chen": 3496,
      "Er": 3497,
      "Has": 3498,
      "Tra": 3499,
      "aud": 3500,
      "dressed": 3501,
      "gri": 3502,
      "pi": 3503,
      "ugh": 3504,
      "refri": 3505,
      "request": 3506,
      "ston": 3507,
      "arrest": 3508,
      "asleep": 3509,
      "western": 3510,
      "rock": 3511,
      "shirts": 3512,
      "somebody": 3513,
      "fered": 3514,
      "tember": 3515,
      "agne": 3516,
      "host": 3517,
      "inda": 3518,
      "article": 3519,
      "ured": 3520,
      "iling": 3521,
      "acting": 3522,
      "comb": 3523,
      "math": 3524,
      "bling": 3525,
      "laugh": 3526,
      "centre": 3527,
      "survey": 3528,
      "France": 3529,
      "realize": 3530,
      "medical": 3531,
      "filled": 3532,
      "inviting": 3533,
      "chair": 3534,
      "exams": 3535,
      "parties": 3536,
      "client": 3537,
      "accepted": 3538,
      "keys": 3539,
      "draft": 3540,
      "entertain": 3541,
      "polit": 3542,
      "changing": 3543,
      "wallet": 3544,
      "balance": 3545,
      "direction": 3546,
      "World": 3547,
      "registration": 3548,
      "impression": 3549,
      "appear": 3550,
      "picnic": 3551,
      "September": 3552,
      "security": 3553,
      "elevator": 3554,
      "refriger": 3555,
      "120": 3556,
      "Am": 3557,
      "Card": 3558,
      "Sam": 3559,
      "Show": 3560,
      "bies": 3561,
      "mut": 3562,
      "nur": 3563,
      "os": 3564,
      "oss": 3565,
      "silk": 3566,
      "income": 3567,
      "aylor": 3568,
      "icles": 3569,
      "coho": 3570,
      "achel": 3571,
      "shut": 3572,
      "antic": 3573,
      "ceed": 3574,
      "aging": 3575,
      "notes": 3576,
      "exten": 3577,
      "delay": 3578,
      "indy": 3579,
      "ques": 3580,
      "events": 3581,
      "manu": 3582,
      "letters": 3583,
      "Aren": 3584,
      "grade": 3585,
      "dial": 3586,
      "torna": 3587,
      "establ": 3588,
      "Excellent": 3589,
      "shops": 3590,
      "highly": 3591,
      "sky": 3592,
      "trains": 3593,
      "choices": 3594,
      "Someone": 3595,
      "gging": 3596,
      "papers": 3597,
      "frequ": 3598,
      "Department": 3599,
      "profit": 3600,
      "includes": 3601,
      "copies": 3602,
      "holidays": 3603,
      "clearly": 3604,
      "potato": 3605,
      "patient": 3606,
      "Julia": 3607,
      "candid": 3608,
      "charged": 3609,
      "trees": 3610,
      "transportation": 3611,
      "agreed": 3612,
      "George": 3613,
      "Professor": 3614,
      "refrigerator": 3615,
      "ossible": 3616,
      "Cindy": 3617,
      "Jones": 3618,
      "Mex": 3619,
      "Put": 3620,
      "Taylor": 3621,
      "Washing": 3622,
      "aver": 3623,
      "cing": 3624,
      "cry": 3625,
      "fed": 3626,
      "fool": 3627,
      "gam": 3628,
      "twelve": 3629,
      "van": 3630,
      "ering": 3631,
      "ordin": 3632,
      "hello": 3633,
      "becoming": 3634,
      "lip": 3635,
      "chi": 3636,
      "roast": 3637,
      "shy": 3638,
      "peace": 3639,
      "demand": 3640,
      "bucks": 3641,
      "proud": 3642,
      "mony": 3643,
      "mercial": 3644,
      "putting": 3645,
      "Before": 3646,
      "England": 3647,
      "positive": 3648,
      "umn": 3649,
      "opened": 3650,
      "qualified": 3651,
      "bills": 3652,
      "Unfortunately": 3653,
      "aware": 3654,
      "dressing": 3655,
      "stuck": 3656,
      "personality": 3657,
      "graphy": 3658,
      "figures": 3659,
      "According": 3660,
      "neighborhood": 3661,
      "distance": 3662,
      "econom": 3663,
      "Time": 3664,
      "normal": 3665,
      "Morning": 3666,
      "laptop": 3667,
      "cinema": 3668,
      "Mexic": 3669,
      "Bus": 3670,
      "Ko": 3671,
      "Res": 3672,
      "Zhang": 3673,
      "besides": 3674,
      "cul": 3675,
      "ium": 3676,
      "jacket": 3677,
      "nity": 3678,
      "thro": 3679,
      "atures": 3680,
      "members": 3681,
      "alcoho": 3682,
      "suf": 3683,
      "ama": 3684,
      "fest": 3685,
      "lob": 3686,
      "exper": 3687,
      "exact": 3688,
      "indi": 3689,
      "cture": 3690,
      "mul": 3691,
      "tood": 3692,
      "novel": 3693,
      "pose": 3694,
      "presid": 3695,
      "previous": 3696,
      "offers": 3697,
      "redu": 3698,
      "trick": 3699,
      "themselves": 3700,
      "mbur": 3701,
      "map": 3702,
      "stopped": 3703,
      "died": 3704,
      "smooth": 3705,
      "skirt": 3706,
      "singing": 3707,
      "attitude": 3708,
      "restaurants": 3709,
      "sides": 3710,
      "related": 3711,
      "styles": 3712,
      "south": 3713,
      "Deposit": 3714,
      "Perfect": 3715,
      "lady": 3716,
      "mountains": 3717,
      "block": 3718,
      "material": 3719,
      "development": 3720,
      "economy": 3721,
      "wrap": 3722,
      "Sarah": 3723,
      "Richard": 3724,
      "equipment": 3725,
      "aisle": 3726,
      "manufact": 3727,
      "21": 3728,
      "26": 3729,
      "CD": 3730,
      "Jason": 3731,
      "King": 3732,
      "Linda": 3733,
      "PM": 3734,
      "Usu": 3735,
      "hou": 3736,
      "lake": 3737,
      "ram": 3738,
      "rating": 3739,
      "tles": 3740,
      "vice": 3741,
      "zing": 3742,
      "thin": 3743,
      "reception": 3744,
      "orange": 3745,
      "ism": 3746,
      "veh": 3747,
      "stat": 3748,
      "select": 3749,
      "alo": 3750,
      "lid": 3751,
      "areas": 3752,
      "access": 3753,
      "goal": 3754,
      "Western": 3755,
      "losing": 3756,
      "goodbye": 3757,
      "perfu": 3758,
      "contribut": 3759,
      "unit": 3760,
      "ends": 3761,
      "dump": 3762,
      "weren": 3763,
      "cloth": 3764,
      "blow": 3765,
      "venue": 3766,
      "missing": 3767,
      "classical": 3768,
      "additional": 3769,
      "passeng": 3770,
      "tests": 3771,
      "perfectly": 3772,
      "basis": 3773,
      "applying": 3774,
      "messages": 3775,
      "relaxing": 3776,
      "install": 3777,
      "responsibility": 3778,
      "International": 3779,
      "songs": 3780,
      "mistakes": 3781,
      "energy": 3782,
      "ships": 3783,
      "impressive": 3784,
      "journey": 3785,
      "champagne": 3786,
      "Quite": 3787,
      "rupt": 3788,
      "ancient": 3789,
      "annual": 3790,
      "Thomas": 3791,
      "70": 3792,
      "Each": 3793,
      "Wall": 3794,
      "ao": 3795,
      "caf": 3796,
      "dat": 3797,
      "die": 3798,
      "ears": 3799,
      "fail": 3800,
      "lin": 3801,
      "mass": 3802,
      "master": 3803,
      "rot": 3804,
      "scar": 3805,
      "tan": 3806,
      "tit": 3807,
      "ury": 3808,
      "independ": 3809,
      "replace": 3810,
      "isy": 3811,
      "formed": 3812,
      "ours": 3813,
      "loss": 3814,
      "seemed": 3815,
      "lets": 3816,
      "glasses": 3817,
      "sia": 3818,
      "players": 3819,
      "impossible": 3820,
      "houses": 3821,
      "enjoying": 3822,
      "resident": 3823,
      "added": 3824,
      "meetings": 3825,
      "taught": 3826,
      "Stud": 3827,
      "spending": 3828,
      "raining": 3829,
      "seller": 3830,
      "relaxed": 3831,
      "volu": 3832,
      "records": 3833,
      "advertising": 3834,
      "charges": 3835,
      "itors": 3836,
      "characters": 3837,
      "culture": 3838,
      "hobbies": 3839,
      "failed": 3840,
      "protect": 3841,
      "sandwich": 3842,
      "museum": 3843,
      "ABC": 3844,
      "Washington": 3845,
      "ordinary": 3846,
      "Usually": 3847,
      "75": 3848,
      "78": 3849,
      "June": 3850,
      "Sing": 3851,
      "Stop": 3852,
      "Walk": 3853,
      "alent": 3854,
      "cin": 3855,
      "een": 3856,
      "gress": 3857,
      "nast": 3858,
      "sin": 3859,
      "spl": 3860,
      "vill": 3861,
      "zes": 3862,
      "attract": 3863,
      "erk": 3864,
      "chose": 3865,
      "shine": 3866,
      "agon": 3867,
      "butter": 3868,
      "Helen": 3869,
      "ural": 3870,
      "urry": 3871,
      "degre": 3872,
      "rail": 3873,
      "cky": 3874,
      "compli": 3875,
      "types": 3876,
      "istic": 3877,
      "specially": 3878,
      "stops": 3879,
      "Char": 3880,
      "bru": 3881,
      "minis": 3882,
      "sian": 3883,
      "checks": 3884,
      "plays": 3885,
      "cord": 3886,
      "showing": 3887,
      "rule": 3888,
      "pale": 3889,
      "earn": 3890,
      "surv": 3891,
      "weekends": 3892,
      "traveler": 3893,
      "teams": 3894,
      "climate": 3895,
      "convenience": 3896,
      "fishing": 3897,
      "entific": 3898,
      "connection": 3899,
      "Second": 3900,
      "slowly": 3901,
      "requirements": 3902,
      "relig": 3903,
      "advantage": 3904,
      "Robert": 3905,
      "declare": 3906,
      "exhibition": 3907,
      "pollution": 3908,
      "warranty": 3909,
      "digital": 3910,
      "average": 3911,
      "degrees": 3912,
      "Ano": 3913,
      "BA": 3914,
      "El": 3915,
      "Mc": 3916,
      "Mum": 3917,
      "Turn": 3918,
      "Wind": 3919,
      "gal": 3920,
      "mad": 3921,
      "phi": 3922,
      "ums": 3923,
      "vy": 3924,
      "init": 3925,
      "incred": 3926,
      "remain": 3927,
      "anno": 3928,
      "lla": 3929,
      "legs": 3930,
      "etc": 3931,
      "river": 3932,
      "moon": 3933,
      "agency": 3934,
      "proof": 3935,
      "quant": 3936,
      "joking": 3937,
      "chess": 3938,
      "offices": 3939,
      "reduce": 3940,
      "series": 3941,
      "unders": 3942,
      "max": 3943,
      "stolen": 3944,
      "fries": 3945,
      "sites": 3946,
      "drunk": 3947,
      "lazy": 3948,
      "accountant": 3949,
      "brings": 3950,
      "talent": 3951,
      "invitation": 3952,
      "iversary": 3953,
      "Johnson": 3954,
      "Liu": 3955,
      "dealing": 3956,
      "senior": 3957,
      "flav": 3958,
      "crack": 3959,
      "gifts": 3960,
      "furnished": 3961,
      "slip": 3962,
      "investment": 3963,
      "memory": 3964,
      "Corpor": 3965,
      "divorce": 3966,
      "PCC": 3967,
      "brief": 3968,
      "safety": 3969,
      "emergency": 3970,
      "typical": 3971,
      "above": 3972,
      "occasion": 3973,
      "Another": 3974,
      "AT": 3975,
      "Fair": 3976,
      "Hurry": 3977,
      "SA": 3978,
      "Sand": 3979,
      "Sally": 3980,
      "Sup": 3981,
      "Sue": 3982,
      "Yep": 3983,
      "brow": 3984,
      "burn": 3985,
      "bilities": 3986,
      "cakes": 3987,
      "nie": 3988,
      "tag": 3989,
      "zhou": 3990,
      "aries": 3991,
      "wild": 3992,
      "roy": 3993,
      "golf": 3994,
      "worst": 3995,
      "entrance": 3996,
      "plat": 3997,
      "convers": 3998,
      "units": 3999,
      "noisy": 4000,
      "affect": 4001,
      "agement": 4002,
      "grat": 4003,
      "grown": 4004,
      "blame": 4005,
      "meaning": 4006,
      "showed": 4007,
      "rude": 4008,
      "badly": 4009,
      "resour": 4010,
      "Franc": 4011,
      "Looks": 4012,
      "jeans": 4013,
      "tape": 4014,
      "favour": 4015,
      "interviewer": 4016,
      "qualific": 4017,
      "seconds": 4018,
      "automat": 4019,
      "olar": 4020,
      "straw": 4021,
      "falling": 4022,
      "flower": 4023,
      "supervis": 4024,
      "porter": 4025,
      "sightseeing": 4026,
      "effects": 4027,
      "storm": 4028,
      "apples": 4029,
      "hobby": 4030,
      "labor": 4031,
      "cigarettes": 4032,
      "branch": 4033,
      "piano": 4034,
      "measure": 4035,
      "suddenly": 4036,
      "shelf": 4037,
      "disappointed": 4038,
      "throat": 4039,
      "individ": 4040,
      "Francis": 4041,
      "36": 4042,
      "AM": 4043,
      "Aug": 4044,
      "Dis": 4045,
      "Five": 4046,
      "Fest": 4047,
      "Glad": 4048,
      "House": 4049,
      "Lily": 4050,
      "Over": 4051,
      "Spr": 4052,
      "Ter": 4053,
      "Too": 4054,
      "Wil": 4055,
      "Zina": 4056,
      "bite": 4057,
      "bie": 4058,
      "ga": 4059,
      "jun": 4060,
      "jud": 4061,
      "kno": 4062,
      "lace": 4063,
      "pound": 4064,
      "rise": 4065,
      "tar": 4066,
      "zoo": 4067,
      "reserved": 4068,
      "anal": 4069,
      "stic": 4070,
      "lex": 4071,
      "charm": 4072,
      "ably": 4073,
      "sured": 4074,
      "anytime": 4075,
      "Things": 4076,
      "agent": 4077,
      "washed": 4078,
      "depart": 4079,
      "depressed": 4080,
      "yellow": 4081,
      "fol": 4082,
      "ideal": 4083,
      "loved": 4084,
      "Haven": 4085,
      "tors": 4086,
      "Enjoy": 4087,
      "handsome": 4088,
      "sets": 4089,
      "supplies": 4090,
      "skill": 4091,
      "singer": 4092,
      "broad": 4093,
      "strate": 4094,
      "author": 4095,
      "rains": 4096,
      "sixty": 4097,
      "terrific": 4098,
      "Definitely": 4099,
      "particip": 4100,
      "practical": 4101,
      "north": 4102,
      "leader": 4103,
      "casual": 4104,
      "catalo": 4105,
      "warning": 4106,
      "property": 4107,
      "Poor": 4108,
      "XXXX": 4109,
      "announ": 4110,
      "anniversary": 4111,
      "Olympic": 4112,
      "literature": 4113,
      "cocktail": 4114,
      "Wonder": 4115,
      "cooperation": 4116,
      "retirement": 4117,
      "appetiz": 4118,
      "original": 4119,
      "extremely": 4120,
      "tornado": 4121,
      "Super": 4122,
      "Festival": 4123,
      "35": 4124,
      "88": 4125,
      "James": 4126,
      "Mart": 4127,
      "Ted": 4128,
      "VI": 4129,
      "Want": 4130,
      "While": 4131,
      "bun": 4132,
      "bunch": 4133,
      "dor": 4134,
      "ech": 4135,
      "fry": 4136,
      "fancy": 4137,
      "glo": 4138,
      "gun": 4139,
      "ker": 4140,
      "nical": 4141,
      "nia": 4142,
      "options": 4143,
      "pork": 4144,
      "tion": 4145,
      "tone": 4146,
      "wa": 4147,
      "inci": 4148,
      "remony": 4149,
      "theat": 4150,
      "theater": 4151,
      "ingred": 4152,
      "itut": 4153,
      "stret": 4154,
      "ald": 4155,
      "sole": 4156,
      "wire": 4157,
      "ird": 4158,
      "oods": 4159,
      "thinks": 4160,
      "agers": 4161,
      "lock": 4162,
      "urb": 4163,
      "articles": 4164,
      "plate": 4165,
      "chemist": 4166,
      "pred": 4167,
      "commercial": 4168,
      "focus": 4169,
      "spell": 4170,
      "court": 4171,
      "grab": 4172,
      "intend": 4173,
      "blouse": 4174,
      "rences": 4175,
      "pump": 4176,
      "suitcase": 4177,
      "subscri": 4178,
      "Anna": 4179,
      "sweat": 4180,
      "confident": 4181,
      "boys": 4182,
      "sleeping": 4183,
      "Chris": 4184,
      "Road": 4185,
      "forgotten": 4186,
      "scheduled": 4187,
      "True": 4188,
      "damaged": 4189,
      "Love": 4190,
      "cameras": 4191,
      "techno": 4192,
      "spoken": 4193,
      "honor": 4194,
      "advertisement": 4195,
      "deserve": 4196,
      "stamps": 4197,
      "chips": 4198,
      "president": 4199,
      "vehicle": 4200,
      "perfume": 4201,
      "nasty": 4202,
      "ingredient": 4203,
      "22": 4204,
      "Cer": 4205,
      "Cent": 4206,
      "Cali": 4207,
      "Four": 4208,
      "Lisa": 4209,
      "ado": 4210,
      "bicy": 4211,
      "dating": 4212,
      "fan": 4213,
      "gers": 4214,
      "ler": 4215,
      "sis": 4216,
      "tv": 4217,
      "uri": 4218,
      "vable": 4219,
      "wing": 4220,
      "rely": 4221,
      "repe": 4222,
      "onto": 4223,
      "eral": 4224,
      "meth": 4225,
      "seaf": 4226,
      "oots": 4227,
      "altogether": 4228,
      "soda": 4229,
      "coll": 4230,
      "nels": 4231,
      "iron": 4232,
      "Web": 4233,
      "amp": 4234,
      "tip": 4235,
      "thern": 4236,
      "proced": 4237,
      "worker": 4238,
      "unless": 4239,
      "chest": 4240,
      "ousing": 4241,
      "clerk": 4242,
      "chances": 4243,
      "sities": 4244,
      "venir": 4245,
      "Com": 4246,
      "studies": 4247,
      "settle": 4248,
      "dining": 4249,
      "shame": 4250,
      "addict": 4251,
      "Something": 4252,
      "fourth": 4253,
      "frank": 4254,
      "presents": 4255,
      "returns": 4256,
      "solution": 4257,
      "bottles": 4258,
      "purpose": 4259,
      "sunny": 4260,
      "insist": 4261,
      "fairly": 4262,
      "spots": 4263,
      "Working": 4264,
      "route": 4265,
      "risk": 4266,
      "flex": 4267,
      "Olympics": 4268,
      "critic": 4269,
      "efficient": 4270,
      "Speaking": 4271,
      "universities": 4272,
      "travelling": 4273,
      "Business": 4274,
      "split": 4275,
      "survive": 4276,
      "quantity": 4277,
      "August": 4278,
      "ingredients": 4279,
      "Califor": 4280,
      "seafood": 4281,
      "East": 4282,
      "Gener": 4283,
      "Master": 4284,
      "Rus": 4285,
      "Squ": 4286,
      "Six": 4287,
      "bes": 4288,
      "bour": 4289,
      "dates": 4290,
      "eed": 4291,
      "flies": 4292,
      "gall": 4293,
      "gro": 4294,
      "iled": 4295,
      "punch": 4296,
      "packed": 4297,
      "sil": 4298,
      "uh": 4299,
      "vard": 4300,
      "anced": 4301,
      "meant": 4302,
      "seve": 4303,
      "sess": 4304,
      "esome": 4305,
      "force": 4306,
      "eding": 4307,
      "goals": 4308,
      "suite": 4309,
      "fective": 4310,
      "quot": 4311,
      "aven": 4312,
      "owners": 4313,
      "princi": 4314,
      "typing": 4315,
      "cies": 4316,
      "hadn": 4317,
      "Chan": 4318,
      "minor": 4319,
      "download": 4320,
      "names": 4321,
      "display": 4322,
      "scholar": 4323,
      "Believe": 4324,
      "supply": 4325,
      "happening": 4326,
      "fired": 4327,
      "addition": 4328,
      "effort": 4329,
      "Forget": 4330,
      "cleaned": 4331,
      "maintain": 4332,
      "reasons": 4333,
      "symp": 4334,
      "tourist": 4335,
      "souvenir": 4336,
      "doors": 4337,
      "considering": 4338,
      "oppo": 4339,
      "graduation": 4340,
      "generally": 4341,
      "fashionable": 4342,
      "Boston": 4343,
      "gentle": 4344,
      "particularly": 4345,
      "walls": 4346,
      "electron": 4347,
      "benefit": 4348,
      "technical": 4349,
      "competition": 4350,
      "neighbors": 4351,
      "explo": 4352,
      "routine": 4353,
      "turning": 4354,
      "bowl": 4355,
      "motorcycle": 4356,
      "experienced": 4357,
      "umbre": 4358,
      "Harvard": 4359,
      "physical": 4360,
      "empty": 4361,
      "sharp": 4362,
      "challenging": 4363,
      "Kore": 4364,
      "expert": 4365,
      "incredible": 4366,
      "Wonderful": 4367,
      "29": 4368,
      "250": 4369,
      "34": 4370,
      "Bring": 4371,
      "Em": 4372,
      "Eve": 4373,
      "Fred": 4374,
      "Kate": 4375,
      "President": 4376,
      "Ri": 4377,
      "Rick": 4378,
      "Sich": 4379,
      "ale": 4380,
      "cooked": 4381,
      "dare": 4382,
      "fra": 4383,
      "housing": 4384,
      "iam": 4385,
      "loose": 4386,
      "mir": 4387,
      "sor": 4388,
      "vio": 4389,
      "rep": 4390,
      "rew": 4391,
      "reput": 4392,
      "meter": 4393,
      "hest": 4394,
      "stage": 4395,
      "sele": 4396,
      "seed": 4397,
      "arian": 4398,
      "hail": 4399,
      "below": 4400,
      "utch": 4401,
      "ids": 4402,
      "neare": 4403,
      "roof": 4404,
      "acy": 4405,
      "nte": 4406,
      "adjust": 4407,
      "features": 4408,
      "loans": 4409,
      "arts": 4410,
      "plants": 4411,
      "hig": 4412,
      "pocket": 4413,
      "cheer": 4414,
      "otherwise": 4415,
      "commo": 4416,
      "speech": 4417,
      "irsty": 4418,
      "channels": 4419,
      "writ": 4420,
      "interests": 4421,
      "Colle": 4422,
      "trim": 4423,
      "shoe": 4424,
      "visited": 4425,
      "William": 4426,
      "signs": 4427,
      "runs": 4428,
      "Whoa": 4429,
      "invo": 4430,
      "topic": 4431,
      "paperwork": 4432,
      "eleven": 4433,
      "Ange": 4434,
      "grades": 4435,
      "enterpr": 4436,
      "completed": 4437,
      "hundreds": 4438,
      "Rome": 4439,
      "Roman": 4440,
      "lawy": 4441,
      "responsibilities": 4442,
      "lence": 4443,
      "newspapers": 4444,
      "cats": 4445,
      "regularly": 4446,
      "conditioning": 4447,
      "garage": 4448,
      "families": 4449,
      "statement": 4450,
      "vidence": 4451,
      "cultural": 4452,
      "calm": 4453,
      "scenery": 4454,
      "scale": 4455,
      "Current": 4456,
      "achelor": 4457,
      "extension": 4458,
      "alcohol": 4459,
      "festival": 4460,
      "repeat": 4461,
      "California": 4462,
      "Sichuan": 4463,
      "400": 4464,
      "800": 4465,
      "Afr": 4466,
      "Avenue": 4467,
      "Call": 4468,
      "Hen": 4469,
      "Ken": 4470,
      "Mm": 4471,
      "Med": 4472,
      "National": 4473,
      "Sch": 4474,
      "dust": 4475,
      "dent": 4476,
      "gin": 4477,
      "junk": 4478,
      "nature": 4479,
      "oven": 4480,
      "option": 4481,
      "pple": 4482,
      "pig": 4483,
      "ww": 4484,
      "inse": 4485,
      "toi": 4486,
      "heel": 4487,
      "stir": 4488,
      "sec": 4489,
      "bean": 4490,
      "belt": 4491,
      "belie": 4492,
      "offered": 4493,
      "ooting": 4494,
      "forgive": 4495,
      "icing": 4496,
      "icago": 4497,
      "rocks": 4498,
      "nder": 4499,
      "shor": 4500,
      "cember": 4501,
      "rights": 4502,
      "concl": 4503,
      "conside": 4504,
      "unusual": 4505,
      "compens": 4506,
      "gotta": 4507,
      "Andy": 4508,
      "coup": 4509,
      "cough": 4510,
      "bored": 4511,
      "partner": 4512,
      "printer": 4513,
      "cafe": 4514,
      "Chicago": 4515,
      "dull": 4516,
      "wrote": 4517,
      "ester": 4518,
      "laid": 4519,
      "handed": 4520,
      "clever": 4521,
      "stere": 4522,
      "offering": 4523,
      "speaks": 4524,
      "effective": 4525,
      "Almost": 4526,
      "bedrooms": 4527,
      "frust": 4528,
      "reservations": 4529,
      "location": 4530,
      "transaction": 4531,
      "arrang": 4532,
      "holding": 4533,
      "confused": 4534,
      "confidence": 4535,
      "faction": 4536,
      "December": 4537,
      "reports": 4538,
      "consideration": 4539,
      "basically": 4540,
      "following": 4541,
      "Waiter": 4542,
      "laws": 4543,
      "Trust": 4544,
      "transferred": 4545,
      "designed": 4546,
      "mentioned": 4547,
      "Kevin": 4548,
      "warming": 4549,
      "satisfaction": 4550,
      "starving": 4551,
      "blocks": 4552,
      "occup": 4553,
      "properly": 4554,
      "community": 4555,
      "---": 4556,
      "Fore": 4557,
      "necklace": 4558,
      "advertisements": 4559,
      "tomato": 4560,
      "advantages": 4561,
      "habits": 4562,
      "Betty": 4563,
      "cabin": 4564,
      "walked": 4565,
      "Otherwise": 4566,
      "embarr": 4567,
      "potatoes": 4568,
      "candidate": 4569,
      "title": 4570,
      "ATM": 4571,
      "conversation": 4572,
      "Henry": 4573,
      "considered": 4574,
      "32": 4575,
      "56": 4576,
      "Bas": 4577,
      "Bir": 4578,
      "Dave": 4579,
      "Emor": 4580,
      "Hon": 4581,
      "Men": 4582,
      "Sy": 4583,
      "Ten": 4584,
      "Tim": 4585,
      "cate": 4586,
      "dies": 4587,
      "eper": 4588,
      "fab": 4589,
      "fond": 4590,
      "harm": 4591,
      "lun": 4592,
      "pills": 4593,
      "pants": 4594,
      "rates": 4595,
      "inc": 4596,
      "informed": 4597,
      "ories": 4598,
      "hey": 4599,
      "stations": 4600,
      "sex": 4601,
      "became": 4602,
      "keen": 4603,
      "sore": 4604,
      "ading": 4605,
      "ceremony": 4606,
      "raz": 4607,
      "prob": 4608,
      "progress": 4609,
      "hiking": 4610,
      "cons": 4611,
      "congrat": 4612,
      "union": 4613,
      "romantic": 4614,
      "cousin": 4615,
      "ishing": 4616,
      "bride": 4617,
      "forecast": 4618,
      "histor": 4619,
      "Surely": 4620,
      "disco": 4621,
      "Rest": 4622,
      "rug": 4623,
      "waiter": 4624,
      "paign": 4625,
      "planet": 4626,
      "steal": 4627,
      "evenings": 4628,
      "lessons": 4629,
      "obvious": 4630,
      "teachers": 4631,
      "network": 4632,
      "Everybody": 4633,
      "campaign": 4634,
      "relatives": 4635,
      "fitness": 4636,
      "whenever": 4637,
      "entire": 4638,
      "crime": 4639,
      "required": 4640,
      "potential": 4641,
      "grandmother": 4642,
      "employer": 4643,
      "description": 4644,
      "expand": 4645,
      "concern": 4646,
      "orgeous": 4647,
      "officer": 4648,
      "proposal": 4649,
      "divorced": 4650,
      "switch": 4651,
      "Service": 4652,
      "cigarette": 4653,
      "appliances": 4654,
      "voted": 4655,
      "data": 4656,
      "maximum": 4657,
      "qualifications": 4658,
      "supervisor": 4659,
      "individual": 4660,
      "Spring": 4661,
      "charming": 4662,
      "global": 4663,
      "bicycle": 4664,
      "Square": 4665,
      "umbrella": 4666,
      "reputation": 4667,
      "selection": 4668,
      "nearest": 4669,
      "lawyer": 4670,
      "Emory": 4671,
      "Amy": 4672,
      "Alex": 4673,
      "Baker": 4674,
      "CP": 4675,
      "Dam": 4676,
      "Dick": 4677,
      "Fill": 4678,
      "IT": 4679,
      "Karen": 4680,
      "Merry": 4681,
      "Wo": 4682,
      "Watch": 4683,
      "Work": 4684,
      "bage": 4685,
      "cil": 4686,
      "dirty": 4687,
      "evidence": 4688,
      "fitting": 4689,
      "hunt": 4690,
      "nin": 4691,
      "nap": 4692,
      "ods": 4693,
      "pil": 4694,
      "shad": 4695,
      "inch": 4696,
      "reco": 4697,
      "mestic": 4698,
      "height": 4699,
      "stone": 4700,
      "bey": 4701,
      "asy": 4702,
      "liqu": 4703,
      "liers": 4704,
      "coke": 4705,
      "rimp": 4706,
      "cancell": 4707,
      "admit": 4708,
      "West": 4709,
      "Their": 4710,
      "anta": 4711,
      "agend": 4712,
      "def": 4713,
      "decent": 4714,
      "ppers": 4715,
      "permit": 4716,
      "atest": 4717,
      "hired": 4718,
      "const": 4719,
      "unfortunately": 4720,
      "compar": 4721,
      "item": 4722,
      "prevent": 4723,
      "event": 4724,
      "roommate": 4725,
      "channel": 4726,
      "pays": 4727,
      "downstairs": 4728,
      "personally": 4729,
      "autumn": 4730,
      "worrying": 4731,
      "sending": 4732,
      "markets": 4733,
      "teaching": 4734,
      "auto": 4735,
      "vacu": 4736,
      "azz": 4737,
      "haircut": 4738,
      "acceptable": 4739,
      "result": 4740,
      "dete": 4741,
      "greatest": 4742,
      "purse": 4743,
      "IBA": 4744,
      "requires": 4745,
      "professor": 4746,
      "eteria": 4747,
      "policies": 4748,
      "burger": 4749,
      "operation": 4750,
      "July": 4751,
      "groups": 4752,
      "funds": 4753,
      "Guess": 4754,
      "skiing": 4755,
      "coln": 4756,
      "paintings": 4757,
      "applied": 4758,
      "mixed": 4759,
      "consult": 4760,
      "Finally": 4761,
      "battery": 4762,
      "lipstick": 4763,
      "manufacture": 4764,
      "cafeteria": 4765,
      "compliment": 4766,
      "strawber": 4767,
      "Wilson": 4768,
      "Martin": 4769,
      "principle": 4770,
      "opposite": 4771,
      "highest": 4772,
      "toilet": 4773,
      "agenda": 4774,
      "27": 4775,
      "2nd": 4776,
      "65": 4777,
      "Cla": 4778,
      "Count": 4779,
      "Je": 4780,
      "Jess": 4781,
      "LA": 4782,
      "Pet": 4783,
      "Ye": 4784,
      "apart": 4785,
      "aunt": 4786,
      "bars": 4787,
      "cro": 4788,
      "dated": 4789,
      "gorgeous": 4790,
      "ography": 4791,
      "ray": 4792,
      "sl": 4793,
      "slight": 4794,
      "tong": 4795,
      "uch": 4796,
      "vit": 4797,
      "thri": 4798,
      "thus": 4799,
      "represent": 4800,
      "ancer": 4801,
      "mechan": 4802,
      "stars": 4803,
      "arms": 4804,
      "ows": 4805,
      "haust": 4806,
      "hambur": 4807,
      "belong": 4808,
      "beans": 4809,
      "ena": 4810,
      "ened": 4811,
      "china": 4812,
      "coast": 4813,
      "roaches": 4814,
      "oodles": 4815,
      "shif": 4816,
      "pest": 4817,
      "teeth": 4818,
      "iff": 4819,
      "concent": 4820,
      "romance": 4821,
      "affair": 4822,
      "acker": 4823,
      "igning": 4824,
      "forever": 4825,
      "tenance": 4826,
      "friendship": 4827,
      "finance": 4828,
      "marks": 4829,
      "smile": 4830,
      "thoughtful": 4831,
      "function": 4832,
      "attach": 4833,
      "signed": 4834,
      "contain": 4835,
      "breaks": 4836,
      "hotels": 4837,
      "iao": 4838,
      "sence": 4839,
      "mainly": 4840,
      "locked": 4841,
      "passion": 4842,
      "customs": 4843,
      "barbec": 4844,
      "feelings": 4845,
      "fifth": 4846,
      "foreigners": 4847,
      "engaged": 4848,
      "correctly": 4849,
      "millions": 4850,
      "killed": 4851,
      "approach": 4852,
      "shipping": 4853,
      "deadline": 4854,
      "Parker": 4855,
      "Lincoln": 4856,
      "Janet": 4857,
      "Barbie": 4858,
      "climbing": 4859,
      "communication": 4860,
      "zero": 4861,
      "limited": 4862,
      "strengths": 4863,
      "separate": 4864,
      "provides": 4865,
      "pipe": 4866,
      "laughing": 4867,
      "entertainment": 4868,
      "nurse": 4869,
      "volunte": 4870,
      "village": 4871,
      "technology": 4872,
      "Central": 4873,
      "silver": 4874,
      "invoice": 4875,
      "believable": 4876,
      "congratulations": 4877,
      "Restaurant": 4878,
      "tongue": 4879,
      "86": 4880,
      "Apple": 4881,
      "Dri": 4882,
      "Eight": 4883,
      "Law": 4884,
      "Mel": 4885,
      "Nancy": 4886,
      "Oper": 4887,
      "VD": 4888,
      "booth": 4889,
      "cles": 4890,
      "ccer": 4891,
      "erest": 4892,
      "ired": 4893,
      "iency": 4894,
      "mort": 4895,
      "nation": 4896,
      "pink": 4897,
      "rated": 4898,
      "tz": 4899,
      "yard": 4900,
      "iny": 4901,
      "ining": 4902,
      "reached": 4903,
      "toms": 4904,
      "lli": 4905,
      "itself": 4906,
      "heaven": 4907,
      "stain": 4908,
      "lemon": 4909,
      "leng": 4910,
      "bel": 4911,
      "lder": 4912,
      "ldom": 4913,
      "weigh": 4914,
      "soccer": 4915,
      "domestic": 4916,
      "ripe": 4917,
      "role": 4918,
      "outstanding": 4919,
      "cancer": 4920,
      "likely": 4921,
      "moist": 4922,
      "shrimp": 4923,
      "mpoo": 4924,
      "exhaust": 4925,
      "rap": 4926,
      "ending": 4927,
      "amed": 4928,
      "coun": 4929,
      "hero": 4930,
      "mangoes": 4931,
      "cling": 4932,
      "brick": 4933,
      "grass": 4934,
      "Donald": 4935,
      "caused": 4936,
      "closer": 4937,
      "hometown": 4938,
      "Express": 4939,
      "angzhou": 4940,
      "corn": 4941,
      "imate": 4942,
      "visitors": 4943,
      "central": 4944,
      "resses": 4945,
      "shake": 4946,
      "shampoo": 4947,
      "breast": 4948,
      "membership": 4949,
      "attack": 4950,
      "costu": 4951,
      "banks": 4952,
      "apartments": 4953,
      "athy": 4954,
      "15th": 4955,
      "streets": 4956,
      "cris": 4957,
      "facial": 4958,
      "considerate": 4959,
      "verted": 4960,
      "vegetarian": 4961,
      "Tracker": 4962,
      "Daddy": 4963,
      "discussion": 4964,
      "growth": 4965,
      "horror": 4966,
      "ladies": 4967,
      "Los": 4968,
      "promoted": 4969,
      "organic": 4970,
      "199": 4971,
      "rolls": 4972,
      "Joan": 4973,
      "killing": 4974,
      "candy": 4975,
      "reliable": 4976,
      "Manager": 4977,
      "picked": 4978,
      "subjects": 4979,
      "Hopefully": 4980,
      "nutr": 4981,
      "finger": 4982,
      "electricity": 4983,
      "possibility": 4984,
      "Britain": 4985,
      "Personal": 4986,
      "difficulties": 4987,
      "establish": 4988,
      "Mexico": 4989,
      "brush": 4990,
      "ministration": 4991,
      "Corporation": 4992,
      "appetizer": 4993,
      "WebTracker": 4994,
      "flexible": 4995,
      "barbecue": 4996,
      "1st": 4997,
      "28": 4998,
      "Braz": 4999,
      "Cred": 5000,
      "Dutch": 5001,
      "DVD": 5002,
      "Econ": 5003,
      "Flight": 5004,
      "Fortun": 5005,
      "Gree": 5006,
      "Gee": 5007,
      "Haw": 5008,
      "Main": 5009,
      "Out": 5010,
      "Open": 5011,
      "Pat": 5012,
      "Pal": 5013,
      "Sun": 5014,
      "Same": 5015,
      "Santa": 5016,
      "Tax": 5017,
      "Wu": 5018,
      "ev": 5019,
      "ey": 5020,
      "fro": 5021,
      "gant": 5022,
      "ians": 5023,
      "mig": 5024,
      "none": 5025,
      "nail": 5026,
      "noodles": 5027,
      "pages": 5028,
      "pitch": 5029,
      "race": 5030,
      "ued": 5031,
      "ugs": 5032,
      "wow": 5033,
      "wave": 5034,
      "ycho": 5035,
      "influ": 5036,
      "release": 5037,
      "tories": 5038,
      "towards": 5039,
      "itive": 5040,
      "ences": 5041,
      "alarm": 5042,
      "utilities": 5043,
      "iding": 5044,
      "neither": 5045,
      "rier": 5046,
      "absent": 5047,
      "acious": 5048,
      "adena": 5049,
      "superi": 5050,
      "Though": 5051,
      "hole": 5052,
      "debit": 5053,
      "prove": 5054,
      "upstairs": 5055,
      "gee": 5056,
      "condu": 5057,
      "ilton": 5058,
      "aks": 5059,
      "akers": 5060,
      "shoulder": 5061,
      "trous": 5062,
      "buff": 5063,
      "managed": 5064,
      "tells": 5065,
      "male": 5066,
      "bridge": 5067,
      "lasts": 5068,
      "pencil": 5069,
      "carrot": 5070,
      "mark": 5071,
      "blind": 5072,
      "stands": 5073,
      "psycho": 5074,
      "path": 5075,
      "eaten": 5076,
      "classmates": 5077,
      "setting": 5078,
      "skirts": 5079,
      "heading": 5080,
      "chop": 5081,
      "Although": 5082,
      "collection": 5083,
      "farm": 5084,
      "iction": 5085,
      "picking": 5086,
      "began": 5087,
      "promote": 5088,
      "rings": 5089,
      "transl": 5090,
      "recommendation": 5091,
      "roads": 5092,
      "exercising": 5093,
      "humor": 5094,
      "awfully": 5095,
      "deter": 5096,
      "atively": 5097,
      "wheel": 5098,
      "joining": 5099,
      "fortune": 5100,
      "windows": 5101,
      "thousands": 5102,
      "projects": 5103,
      "photograph": 5104,
      "neighbour": 5105,
      "truck": 5106,
      "growing": 5107,
      "horse": 5108,
      "balcon": 5109,
      "tradition": 5110,
      "operate": 5111,
      "clubs": 5112,
      "capital": 5113,
      "Follow": 5114,
      "Pardon": 5115,
      "venture": 5116,
      "Huh": 5117,
      "journal": 5118,
      "Such": 5119,
      "decorating": 5120,
      "breathing": 5121,
      "preparing": 5122,
      "frequently": 5123,
      "crying": 5124,
      "gambling": 5125,
      "suffer": 5126,
      "massage": 5127,
      "VISA": 5128,
      "theatre": 5129,
      "stretch": 5130,
      "addicted": 5131,
      "compensation": 5132,
      "Foreign": 5133,
      "Honda": 5134,
      "probation": 5135,
      "recogn": 5136,
      "Credit": 5137,
      "Fortunately": 5138,
      "trousers": 5139,
      "Gate": 5140,
      "LS": 5141,
      "Long": 5142,
      "Mal": 5143,
      "Mill": 5144,
      "Mars": 5145,
      "Nan": 5146,
      "San": 5147,
      "Sit": 5148,
      "Sever": 5149,
      "Sons": 5150,
      "Tony": 5151,
      "Valent": 5152,
      "Yup": 5153,
      "cit": 5154,
      "crush": 5155,
      "dney": 5156,
      "equi": 5157,
      "fans": 5158,
      "ges": 5159,
      "lp": 5160,
      "las": 5161,
      "lone": 5162,
      "mn": 5163,
      "mple": 5164,
      "rd": 5165,
      "slot": 5166,
      "umin": 5167,
      "vase": 5168,
      "vol": 5169,
      "reward": 5170,
      "tow": 5171,
      "llen": 5172,
      "memo": 5173,
      "states": 5174,
      "beha": 5175,
      "ening": 5176,
      "envy": 5177,
      "ashed": 5178,
      "alty": 5179,
      "alous": 5180,
      "altern": 5181,
      "weird": 5182,
      "lig": 5183,
      "arent": 5184,
      "neg": 5185,
      "rose": 5186,
      "admi": 5187,
      "anybody": 5188,
      "tires": 5189,
      "shout": 5190,
      "shooting": 5191,
      "aked": 5192,
      "cereal": 5193,
      "feed": 5194,
      "tee": 5195,
      "Think": 5196,
      "Help": 5197,
      "hop": 5198,
      "exe": 5199,
      "goodness": 5200,
      "ups": 5201,
      "upon": 5202,
      "cted": 5203,
      "contest": 5204,
      "ille": 5205,
      "ulation": 5206,
      "cker": 5207,
      "jogging": 5208,
      "chef": 5209,
      "commit": 5210,
      "stocks": 5211,
      "grate": 5212,
      "diving": 5213,
      "airmail": 5214,
      "Rebec": 5215,
      "Couldn": 5216,
      "trips": 5217,
      "household": 5218,
      "handling": 5219,
      "mile": 5220,
      "drives": 5221,
      "skating": 5222,
      "tables": 5223,
      "trainer": 5224,
      "listed": 5225,
      "regulations": 5226,
      "regret": 5227,
      "chops": 5228,
      "Form": 5229,
      "salt": 5230,
      "Star": 5231,
      "qualities": 5232,
      "smoker": 5233,
      "prize": 5234,
      "ailed": 5235,
      "election": 5236,
      "grew": 5237,
      "landsca": 5238,
      "catching": 5239,
      "sunshine": 5240,
      "falls": 5241,
      "dropped": 5242,
      "fashioned": 5243,
      "pets": 5244,
      "leading": 5245,
      "steps": 5246,
      "USD": 5247,
      "slim": 5248,
      "investig": 5249,
      "Loan": 5250,
      "models": 5251,
      "satisfactory": 5252,
      "competitive": 5253,
      "tificates": 5254,
      "carrying": 5255,
      "employed": 5256,
      "issues": 5257,
      "stressful": 5258,
      "official": 5259,
      "instructions": 5260,
      "normally": 5261,
      "connected": 5262,
      "Indian": 5263,
      "Sara": 5264,
      "colour": 5265,
      "Better": 5266,
      "Mmmm": 5267,
      "destroy": 5268,
      "valuable": 5269,
      "possibly": 5270,
      "corporation": 5271,
      "breathe": 5272,
      "Travel": 5273,
      "economic": 5274,
      "Single": 5275,
      "Elvin": 5276,
      "annoying": 5277,
      "resources": 5278,
      "chemistry": 5279,
      "Generally": 5280,
      "Emily": 5281,
      "insect": 5282,
      "Birth": 5283,
      "Sydney": 5284,
      "Damn": 5285,
      "beyond": 5286,
      "Several": 5287,
      "admire": 5288,
      "Rebecca": 5289,
      "Aw": 5290,
      "Bri": 5291,
      "Book": 5292,
      "Cal": 5293,
      "Clu": 5294,
      "Center": 5295,
      "Cont": 5296,
      "DD": 5297,
      "Especially": 5298,
      "IF": 5299,
      "Jud": 5300,
      "Kit": 5301,
      "Lea": 5302,
      "Mountain": 5303,
      "Nick": 5304,
      "Red": 5305,
      "Twent": 5306,
      "Tian": 5307,
      "Vince": 5308,
      "Wr": 5309,
      "Yang": 5310,
      "award": 5311,
      "bound": 5312,
      "dancer": 5313,
      "equal": 5314,
      "fet": 5315,
      "gross": 5316,
      "kins": 5317,
      "nities": 5318,
      "stood": 5319,
      "tack": 5320,
      "zzy": 5321,
      "thirsty": 5322,
      "inconvenience": 5323,
      "toes": 5324,
      "itar": 5325,
      "hew": 5326,
      "arily": 5327,
      "bend": 5328,
      "enge": 5329,
      "enthus": 5330,
      "iculous": 5331,
      "alumin": 5332,
      "coach": 5333,
      "robe": 5334,
      "accompl": 5335,
      "accommo": 5336,
      "goss": 5337,
      "mosp": 5338,
      "pepper": 5339,
      "fection": 5340,
      "exist": 5341,
      "death": 5342,
      "perm": 5343,
      "plates": 5344,
      "Nope": 5345,
      "hip": 5346,
      "convin": 5347,
      "unhappy": 5348,
      "unfair": 5349,
      "unbelievable": 5350,
      "ils": 5351,
      "compare": 5352,
      "overweight": 5353,
      "bump": 5354,
      "pron": 5355,
      "forest": 5356,
      "civ": 5357,
      "letting": 5358,
      "causing": 5359,
      "calend": 5360,
      "stove": 5361,
      "whom": 5362,
      "clothing": 5363,
      "ademic": 5364,
      "drug": 5365,
      "phones": 5366,
      "planned": 5367,
      "surface": 5368,
      "hearing": 5369,
      "personnel": 5370,
      "lowest": 5371,
      "breaking": 5372,
      "velous": 5373,
      "jealous": 5374,
      "curtain": 5375,
      "although": 5376,
      "examination": 5377,
      "foundation": 5378,
      "elegant": 5379,
      "departments": 5380,
      "camping": 5381,
      "parcel": 5382,
      "relations": 5383,
      "tasty": 5384,
      "detailed": 5385,
      "complex": 5386,
      "joined": 5387,
      "sofa": 5388,
      "Steve": 5389,
      "succeed": 5390,
      "designs": 5391,
      "Jimmy": 5392,
      "developing": 5393,
      "baseball": 5394,
      "trading": 5395,
      "Market": 5396,
      "exception": 5397,
      "employment": 5398,
      "garbage": 5399,
      "developed": 5400,
      "collecting": 5401,
      "scene": 5402,
      "challenge": 5403,
      "nuts": 5404,
      "bidden": 5405,
      "structure": 5406,
      "cockroaches": 5407,
      "earthqu": 5408,
      "negotiate": 5409,
      "Harry": 5410,
      "waltz": 5411,
      "robb": 5412,
      "sheets": 5413,
      "North": 5414,
      "lobby": 5415,
      "passengers": 5416,
      "independent": 5417,
      "crackers": 5418,
      "platform": 5419,
      "judge": 5420,
      "departure": 5421,
      "catalogu": 5422,
      "waist": 5423,
      "Certificate": 5424,
      "procedure": 5425,
      "beside": 5426,
      "scholarship": 5427,
      "souvenirs": 5428,
      "writer": 5429,
      "College": 5430,
      "Angeles": 5431,
      "Women": 5432,
      "Drive": 5433,
      "lliant": 5434,
      "moisturi": 5435,
      "exhausted": 5436,
      "superior": 5437,
      "balcony": 5438,
      "Valentine": 5439,
      "lonely": 5440,
      "grateful": 5441,
      "Birthday": 5442,
      "Club": 5443,
      "Twenty": 5444,
      "enthusi": 5445,
      "mosphere": 5446,
      "calendar": 5447,
      "95": 5448,
      "AC": 5449,
      "Asian": 5450,
      "Ca": 5451,
      "DE": 5452,
      "Ed": 5453,
      "Ham": 5454,
      "March": 5455,
      "Ob": 5456,
      "PI": 5457,
      "PLS": 5458,
      "Saving": 5459,
      "Tina": 5460,
      "Yester": 5461,
      "bs": 5462,
      "bachelor": 5463,
      "fright": 5464,
      "ged": 5465,
      "gather": 5466,
      "hh": 5467,
      "jet": 5468,
      "kin": 5469,
      "kyo": 5470,
      "mask": 5471,
      "mild": 5472,
      "sne": 5473,
      "uary": 5474,
      "vic": 5475,
      "via": 5476,
      "wis": 5477,
      "whis": 5478,
      "zone": 5479,
      "thick": 5480,
      "iner": 5481,
      "intell": 5482,
      "refer": 5483,
      "relieve": 5484,
      "refresh": 5485,
      "recover": 5486,
      "anic": 5487,
      "ats": 5488,
      "atmosphere": 5489,
      "hesit": 5490,
      "seldom": 5491,
      "forts": 5492,
      "assure": 5493,
      "aller": 5494,
      "wealth": 5495,
      "solid": 5496,
      "cher": 5497,
      "uts": 5498,
      "identific": 5499,
      "colu": 5500,
      "outfit": 5501,
      "irin": 5502,
      "suspect": 5503,
      "amond": 5504,
      "shown": 5505,
      "fear": 5506,
      "ferences": 5507,
      "lored": 5508,
      "ushed": 5509,
      "demon": 5510,
      "indic": 5511,
      "Doll": 5512,
      "plug": 5513,
      "hier": 5514,
      "committed": 5515,
      "twin": 5516,
      "guard": 5517,
      "capt": 5518,
      "sible": 5519,
      "sizes": 5520,
      "dip": 5521,
      "dizzy": 5522,
      "diamond": 5523,
      "named": 5524,
      "Read": 5525,
      "minded": 5526,
      "fewer": 5527,
      "fiction": 5528,
      "waited": 5529,
      "waitress": 5530,
      "talks": 5531,
      "bookstore": 5532,
      "image": 5533,
      "Tokyo": 5534,
      "iously": 5535,
      "century": 5536,
      "surg": 5537,
      "mium": 5538,
      "create": 5539,
      "bringing": 5540,
      "broch": 5541,
      "efforts": 5542,
      "specialty": 5543,
      "reality": 5544,
      "favorable": 5545,
      "scary": 5546,
      "Doesn": 5547,
      "izing": 5548,
      "athlet": 5549,
      "sleeve": 5550,
      "flights": 5551,
      "largest": 5552,
      "Anne": 5553,
      "packages": 5554,
      "Mont": 5555,
      "recommended": 5556,
      "awesome": 5557,
      "polite": 5558,
      "arriving": 5559,
      "posted": 5560,
      "postcards": 5561,
      "fallen": 5562,
      "treated": 5563,
      "sorts": 5564,
      "logical": 5565,
      "generation": 5566,
      "Accord": 5567,
      "midnight": 5568,
      "temper": 5569,
      "educational": 5570,
      "hanging": 5571,
      "ridiculous": 5572,
      "sticks": 5573,
      "techni": 5574,
      "queen": 5575,
      "printed": 5576,
      "arrangement": 5577,
      "dedu": 5578,
      "pattern": 5579,
      "conditioner": 5580,
      "retur": 5581,
      "Julie": 5582,
      "withdrawal": 5583,
      "quarters": 5584,
      "smells": 5585,
      "Consu": 5586,
      "Guangzhou": 5587,
      "confirmation": 5588,
      "jumped": 5589,
      "engineer": 5590,
      "faith": 5591,
      "brilliant": 5592,
      "thorough": 5593,
      "appetite": 5594,
      "organization": 5595,
      "society": 5596,
      "spirit": 5597,
      "corporate": 5598,
      "encourage": 5599,
      "difficulty": 5600,
      "delayed": 5601,
      "multi": 5602,
      "reduction": 5603,
      "dumpling": 5604,
      "railway": 5605,
      "Charles": 5606,
      "initial": 5607,
      "favourite": 5608,
      "junior": 5609,
      "dorm": 5610,
      "wireless": 5611,
      "electronic": 5612,
      "frame": 5613,
      "reply": 5614,
      "arranged": 5615,
      "fabulous": 5616,
      "volunteer": 5617,
      "mortgage": 5618,
      "length": 5619,
      "counse": 5620,
      "arently": 5621,
      "Leave": 5622,
      "aluminum": 5623,
      "Yesterday": 5624,
      "column": 5625,
      "38": 5626,
      "39": 5627,
      "98": 5628,
      "Bea": 5629,
      "Bang": 5630,
      "Coffee": 5631,
      "Dear": 5632,
      "EDD": 5633,
      "FO": 5634,
      "Fif": 5635,
      "Fantastic": 5636,
      "II": 5637,
      "Lan": 5638,
      "Laur": 5639,
      "Mus": 5640,
      "Net": 5641,
      "Sa": 5642,
      "Si": 5643,
      "Scot": 5644,
      "TO": 5645,
      "Ta": 5646,
      "Ty": 5647,
      "Talk": 5648,
      "Thail": 5649,
      "Ze": 5650,
      "apest": 5651,
      "bare": 5652,
      "brain": 5653,
      "ered": 5654,
      "evalu": 5655,
      "fas": 5656,
      "gown": 5657,
      "gap": 5658,
      "nch": 5659,
      "oce": 5660,
      "pour": 5661,
      "pun": 5662,
      "rical": 5663,
      "racket": 5664,
      "umber": 5665,
      "vior": 5666,
      "ya": 5667,
      "zed": 5668,
      "rear": 5669,
      "remove": 5670,
      "reference": 5671,
      "toys": 5672,
      "erable": 5673,
      "metal": 5674,
      "stro": 5675,
      "semin": 5676,
      "envelo": 5677,
      "assured": 5678,
      "alive": 5679,
      "chilly": 5680,
      "ots": 5681,
      "idents": 5682,
      "rific": 5683,
      "aces": 5684,
      "cance": 5685,
      "ador": 5686,
      "lying": 5687,
      "myster": 5688,
      "iry": 5689,
      "irmed": 5690,
      "antly": 5691,
      "peel": 5692,
      "worn": 5693,
      "explan": 5694,
      "definite": 5695,
      "ental": 5696,
      "plot": 5697,
      "Nobody": 5698,
      "workshop": 5699,
      "tools": 5700,
      "uncomfortable": 5701,
      "ulance": 5702,
      "amenities": 5703,
      "joke": 5704,
      "trict": 5705,
      "themat": 5706,
      "however": 5707,
      "owner": 5708,
      "lottery": 5709,
      "guitar": 5710,
      "serving": 5711,
      "serves": 5712,
      "afterwards": 5713,
      "courage": 5714,
      "mathemat": 5715,
      "mini": 5716,
      "interrupt": 5717,
      "intention": 5718,
      "marked": 5719,
      "meantime": 5720,
      "drugs": 5721,
      "intosh": 5722,
      "miserable": 5723,
      "lux": 5724,
      "turns": 5725,
      "suppliers": 5726,
      "steam": 5727,
      "lley": 5728,
      "throughout": 5729,
      "speakers": 5730,
      "Alt": 5731,
      "beds": 5732,
      "lord": 5733,
      "lesson": 5734,
      "countryside": 5735,
      "obje": 5736,
      "woke": 5737,
      "interviews": 5738,
      "gged": 5739,
      "birds": 5740,
      "passes": 5741,
      "cookies": 5742,
      "shortly": 5743,
      "maintenance": 5744,
      "Brad": 5745,
      "depending": 5746,
      "pairs": 5747,
      "attending": 5748,
      "instance": 5749,
      "treatment": 5750,
      "drove": 5751,
      "placed": 5752,
      "honestly": 5753,
      "tempor": 5754,
      "directions": 5755,
      "answers": 5756,
      "riding": 5757,
      "fruits": 5758,
      "burning": 5759,
      "opera": 5760,
      "Maria": 5761,
      "currently": 5762,
      "patience": 5763,
      "scient": 5764,
      "lecture": 5765,
      "approval": 5766,
      "relationships": 5767,
      "nesses": 5768,
      "Micro": 5769,
      "pulled": 5770,
      "capable": 5771,
      "storage": 5772,
      "chatting": 5773,
      "wooden": 5774,
      "emails": 5775,
      "propose": 5776,
      "ysis": 5777,
      "deserves": 5778,
      "Indeed": 5779,
      "kilometers": 5780,
      "experiences": 5781,
      "safer": 5782,
      "cotton": 5783,
      "tuition": 5784,
      "efficiency": 5785,
      "British": 5786,
      "strength": 5787,
      "assigned": 5788,
      "arrested": 5789,
      "religious": 5790,
      "understood": 5791,
      "niece": 5792,
      "analysis": 5793,
      "strategy": 5794,
      "bungee": 5795,
      "sisters": 5796,
      "methods": 5797,
      "Africa": 5798,
      "coupons": 5799,
      "stereo": 5800,
      "detective": 5801,
      "concentrate": 5802,
      "Greek": 5803,
      "carrots": 5804,
      "behavior": 5805,
      "gossip": 5806,
      "PIN": 5807,
      "Savings": 5808,
      "identification": 5809,
      "returning": 5810,
      "Beaut": 5811,
      "Laura": 5812,
      "Thailand": 5813,
      "77": 5814,
      "Bl": 5815,
      "Back": 5816,
      "Chi": 5817,
      "Dian": 5818,
      "Eric": 5819,
      "Games": 5820,
      "Hal": 5821,
      "Hum": 5822,
      "Imp": 5823,
      "Kar": 5824,
      "Mine": 5825,
      "Sp": 5826,
      "Sal": 5827,
      "Umm": 5828,
      "Wood": 5829,
      "Yi": 5830,
      "cow": 5831,
      "eager": 5832,
      "gay": 5833,
      "hiring": 5834,
      "iang": 5835,
      "kiss": 5836,
      "lat": 5837,
      "lamb": 5838,
      "mur": 5839,
      "mary": 5840,
      "maker": 5841,
      "op": 5842,
      "ology": 5843,
      "pul": 5844,
      "pure": 5845,
      "ration": 5846,
      "sac": 5847,
      "sink": 5848,
      "sses": 5849,
      "upper": 5850,
      "wit": 5851,
      "wines": 5852,
      "yan": 5853,
      "threw": 5854,
      "inj": 5855,
      "inner": 5856,
      "resolution": 5857,
      "erob": 5858,
      "island": 5859,
      "heating": 5860,
      "leaf": 5861,
      "leaking": 5862,
      "behave": 5863,
      "former": 5864,
      "aland": 5865,
      "edge": 5866,
      "wels": 5867,
      "lian": 5868,
      "ida": 5869,
      "covers": 5870,
      "neat": 5871,
      "ripped": 5872,
      "abilities": 5873,
      "academic": 5874,
      "irley": 5875,
      "amins": 5876,
      "tips": 5877,
      "getic": 5878,
      "Thirty": 5879,
      "agging": 5880,
      "logo": 5881,
      "exit": 5882,
      "delight": 5883,
      "deals": 5884,
      "raised": 5885,
      "promp": 5886,
      "perman": 5887,
      "plumb": 5888,
      "hike": 5889,
      "constru": 5890,
      "bleeding": 5891,
      "cheapest": 5892,
      "actual": 5893,
      "overnight": 5894,
      "manners": 5895,
      "istics": 5896,
      "stole": 5897,
      "mornings": 5898,
      "duck": 5899,
      "sitive": 5900,
      "closes": 5901,
      "marvelous": 5902,
      "blank": 5903,
      "asks": 5904,
      "hardware": 5905,
      "lawn": 5906,
      "careless": 5907,
      "rub": 5908,
      "cardboard": 5909,
      "booking": 5910,
      "tries": 5911,
      "classic": 5912,
      "sooner": 5913,
      "matches": 5914,
      "surfing": 5915,
      "ully": 5916,
      "filet": 5917,
      "fiance": 5918,
      "ports": 5919,
      "portion": 5920,
      "realized": 5921,
      "credits": 5922,
      "banking": 5923,
      "frag": 5924,
      "puzz": 5925,
      "matters": 5926,
      "Neither": 5927,
      "thirteen": 5928,
      "rainy": 5929,
      "slept": 5930,
      "prior": 5931,
      "vacant": 5932,
      "sensible": 5933,
      "pardon": 5934,
      "exercises": 5935,
      "Shirley": 5936,
      "confirmed": 5937,
      "charity": 5938,
      "filing": 5939,
      "allowance": 5940,
      "response": 5941,
      "weights": 5942,
      "craft": 5943,
      "saved": 5944,
      "attended": 5945,
      "grape": 5946,
      "discussed": 5947,
      "Step": 5948,
      "decisions": 5949,
      "designer": 5950,
      "fields": 5951,
      "benefic": 5952,
      "grandfather": 5953,
      "arrangements": 5954,
      "figured": 5955,
      "animal": 5956,
      "energetic": 5957,
      "collections": 5958,
      "prescribe": 5959,
      "Management": 5960,
      "jamin": 5961,
      "trend": 5962,
      "Haha": 5963,
      "bothering": 5964,
      "Times": 5965,
      "mittance": 5966,
      "January": 5967,
      "Robin": 5968,
      "Macintosh": 5969,
      "Seriously": 5970,
      "created": 5971,
      "destination": 5972,
      "voting": 5973,
      "physics": 5974,
      "European": 5975,
      "555": 5976,
      "branches": 5977,
      "cartons": 5978,
      "strike": 5979,
      "Benjamin": 5980,
      "ambulance": 5981,
      "samples": 5982,
      "brave": 5983,
      "audience": 5984,
      "combination": 5985,
      "political": 5986,
      "reduced": 5987,
      "passenger": 5988,
      "flavors": 5989,
      "automatic": 5990,
      "folk": 5991,
      "Christi": 5992,
      "mirror": 5993,
      "enterprise": 5994,
      "School": 5995,
      "heels": 5996,
      "historical": 5997,
      "shadow": 5998,
      "vacuum": 5999,
      "thrill": 6000,
      "representative": 6001,
      "hamburger": 6002,
      "Hawai": 6003,
      "Palace": 6004,
      "Taxi": 6005,
      "buffet": 6006,
      "execut": 6007,
      "illegal": 6008,
      "Judy": 6009,
      "convinced": 6010,
      "earthquake": 6011,
      "robbery": 6012,
      "surgery": 6013,
      "Zealand": 6014,
      "Altadena": 6015,
      "plumbing": 6016,
      "66": 6017,
      "600": 6018,
      "Aha": 6019,
      "Agency": 6020,
      "Cook": 6021,
      "Cash": 6022,
      "CIF": 6023,
      "Di": 6024,
      "Either": 6025,
      "HR": 6026,
      "Hilton": 6027,
      "Jerry": 6028,
      "Lake": 6029,
      "Mid": 6030,
      "Mad": 6031,
      "Miao": 6032,
      "Na": 6033,
      "Pay": 6034,
      "Ru": 6035,
      "Ryan": 6036,
      "Sha": 6037,
      "Tw": 6038,
      "Thai": 6039,
      "Unt": 6040,
      "Van": 6041,
      "aled": 6042,
      "cub": 6043,
      "dances": 6044,
      "em": 6045,
      "east": 6046,
      "fting": 6047,
      "groom": 6048,
      "hook": 6049,
      "kne": 6050,
      "lag": 6051,
      "mare": 6052,
      "ost": 6053,
      "pam": 6054,
      "uck": 6055,
      "wool": 6056,
      "threat": 6057,
      "inqui": 6058,
      "ites": 6059,
      "lean": 6060,
      "arrow": 6061,
      "essent": 6062,
      "beers": 6063,
      "aspect": 6064,
      "wears": 6065,
      "soap": 6066,
      "liest": 6067,
      "outgoing": 6068,
      "accur": 6069,
      "summ": 6070,
      "loso": 6071,
      "mush": 6072,
      "contr": 6073,
      "united": 6074,
      "needn": 6075,
      "endy": 6076,
      "quis": 6077,
      "illa": 6078,
      "bles": 6079,
      "cking": 6080,
      "igno": 6081,
      "pretend": 6082,
      "pregn": 6083,
      "trash": 6084,
      "reeze": 6085,
      "commut": 6086,
      "overdraft": 6087,
      "ief": 6088,
      "iest": 6089,
      "managers": 6090,
      "clar": 6091,
      "click": 6092,
      "istant": 6093,
      "greatly": 6094,
      "assy": 6095,
      "brace": 6096,
      "rental": 6097,
      "distract": 6098,
      "trial": 6099,
      "immig": 6100,
      "handic": 6101,
      "supper": 6102,
      "cleans": 6103,
      "signific": 6104,
      "balls": 6105,
      "musical": 6106,
      "stranger": 6107,
      "qualify": 6108,
      "Johnny": 6109,
      "bird": 6110,
      "sixteen": 6111,
      "freed": 6112,
      "cleaner": 6113,
      "sellers": 6114,
      "holders": 6115,
      "southern": 6116,
      "couples": 6117,
      "allows": 6118,
      "arrival": 6119,
      "landed": 6120,
      "landlord": 6121,
      "copier": 6122,
      "followed": 6123,
      "Interest": 6124,
      "institut": 6125,
      "systems": 6126,
      "brothers": 6127,
      "refuse": 6128,
      "leads": 6129,
      "truly": 6130,
      "slipped": 6131,
      "Kelly": 6132,
      "introduced": 6133,
      "prints": 6134,
      "winning": 6135,
      "compete": 6136,
      "salads": 6137,
      "reminds": 6138,
      "reminding": 6139,
      "borrowed": 6140,
      "complaints": 6141,
      "processing": 6142,
      "calcul": 6143,
      "notebook": 6144,
      "flea": 6145,
      "Janice": 6146,
      "tailor": 6147,
      "liter": 6148,
      "weakness": 6149,
      "creative": 6150,
      "documentary": 6151,
      "Airlines": 6152,
      "communicate": 6153,
      "Leo": 6154,
      "circ": 6155,
      "robbed": 6156,
      "sources": 6157,
      "preparation": 6158,
      "grill": 6159,
      "peaceful": 6160,
      "novels": 6161,
      "tango": 6162,
      "chosen": 6163,
      "philoso": 6164,
      "target": 6165,
      "announce": 6166,
      "Channel": 6167,
      "frustrating": 6168,
      "cabinet": 6169,
      "Basically": 6170,
      "Yellow": 6171,
      "influence": 6172,
      "Brian": 6173,
      "hesitate": 6174,
      "counselor": 6175,
      "barely": 6176,
      "fascin": 6177,
      "stroke": 6178,
      "permanent": 6179,
      "Hawaii": 6180,
      "Until": 6181,
      "1000": 6182,
      "3rd": 6183,
      "Around": 6184,
      "Des": 6185,
      "ETV": 6186,
      "Gold": 6187,
      "Hall": 6188,
      "Having": 6189,
      "Lat": 6190,
      "Lad": 6191,
      "Lots": 6192,
      "MP": 6193,
      "MS": 6194,
      "Mag": 6195,
      "NBA": 6196,
      "Ping": 6197,
      "Phi": 6198,
      "Seat": 6199,
      "Size": 6200,
      "Tv": 6201,
      "Tang": 6202,
      "Teach": 6203,
      "Whe": 6204,
      "Wish": 6205,
      "aid": 6206,
      "aerob": 6207,
      "ba": 6208,
      "bust": 6209,
      "dd": 6210,
      "jazz": 6211,
      "link": 6212,
      "oline": 6213,
      "pow": 6214,
      "pace": 6215,
      "patch": 6216,
      "rand": 6217,
      "rang": 6218,
      "sso": 6219,
      "slack": 6220,
      "tat": 6221,
      "tid": 6222,
      "vant": 6223,
      "vices": 6224,
      "thy": 6225,
      "inqu": 6226,
      "info": 6227,
      "inten": 6228,
      "rele": 6229,
      "revo": 6230,
      "theory": 6231,
      "oned": 6232,
      "orn": 6233,
      "ita": 6234,
      "vember": 6235,
      "sta": 6236,
      "stressed": 6237,
      "stances": 6238,
      "bered": 6239,
      "iches": 6240,
      "asp": 6241,
      "asing": 6242,
      "assed": 6243,
      "albu": 6244,
      "chill": 6245,
      "ghost": 6246,
      "coin": 6247,
      "cosme": 6248,
      "colored": 6249,
      "rial": 6250,
      "outdoor": 6251,
      "aby": 6252,
      "termin": 6253,
      "tile": 6254,
      "tied": 6255,
      "shan": 6256,
      "pei": 6257,
      "urity": 6258,
      "ased": 6259,
      "entry": 6260,
      "useless": 6261,
      "November": 6262,
      "aint": 6263,
      "ults": 6264,
      "comedy": 6265,
      "hydr": 6266,
      "joint": 6267,
      "jokes": 6268,
      "cheating": 6269,
      "cheque": 6270,
      "Anderson": 6271,
      "bull": 6272,
      "sert": 6273,
      "assing": 6274,
      "apped": 6275,
      "paycheck": 6276,
      "monitor": 6277,
      "happier": 6278,
      "buyer": 6279,
      "whose": 6280,
      "causes": 6281,
      "mustn": 6282,
      "interpre": 6283,
      "ignon": 6284,
      "blond": 6285,
      "impact": 6286,
      "dislike": 6287,
      "Allen": 6288,
      "label": 6289,
      "Eng": 6290,
      "Coke": 6291,
      "handbag": 6292,
      "stays": 6293,
      "highway": 6294,
      "matched": 6295,
      "resign": 6296,
      "tablets": 6297,
      "differently": 6298,
      "trained": 6299,
      "freezing": 6300,
      "cycling": 6301,
      "signature": 6302,
      "speaker": 6303,
      "oking": 6304,
      "Stars": 6305,
      "chap": 6306,
      "sixth": 6307,
      "sells": 6308,
      "Shar": 6309,
      "appreciated": 6310,
      "returned": 6311,
      "sleepy": 6312,
      "programmes": 6313,
      "boards": 6314,
      "contracts": 6315,
      "IBM": 6316,
      "saves": 6317,
      "attendant": 6318,
      "blackout": 6319,
      "receipts": 6320,
      "photography": 6321,
      "vegetable": 6322,
      "generous": 6323,
      "reflect": 6324,
      "stronger": 6325,
      "profession": 6326,
      "professors": 6327,
      "Taipei": 6328,
      "elected": 6329,
      "dreamed": 6330,
      "affordable": 6331,
      "organized": 6332,
      "garlic": 6333,
      "disturb": 6334,
      "appropri": 6335,
      "viding": 6336,
      "improvement": 6337,
      "steaks": 6338,
      "complaint": 6339,
      "scores": 6340,
      "divided": 6341,
      "naturally": 6342,
      "appeal": 6343,
      "relief": 6344,
      "Post": 6345,
      "fighting": 6346,
      "Italy": 6347,
      "activity": 6348,
      "unique": 6349,
      "duties": 6350,
      "honors": 6351,
      "wrapped": 6352,
      "decorate": 6353,
      "kilos": 6354,
      "antique": 6355,
      "negotiation": 6356,
      "circul": 6357,
      "sharing": 6358,
      "organizing": 6359,
      "Class": 6360,
      "regarding": 6361,
      "banquet": 6362,
      "argue": 6363,
      "shuttle": 6364,
      "established": 6365,
      "frequent": 6366,
      "gamble": 6367,
      "Reser": 6368,
      "tricks": 6369,
      "Windows": 6370,
      "understor": 6371,
      "flavor": 6372,
      "Sandals": 6373,
      "automatically": 6374,
      "folks": 6375,
      "predic": 6376,
      "seventy": 6377,
      "Korea": 6378,
      "violence": 6379,
      "Romans": 6380,
      "Medium": 6381,
      "dentist": 6382,
      "occupation": 6383,
      "categ": 6384,
      "obviously": 6385,
      "manufacturer": 6386,
      "strawberry": 6387,
      "affairs": 6388,
      "crisp": 6389,
      "insects": 6390,
      "Contin": 6391,
      "accomplish": 6392,
      "curtains": 6393,
      "explanation": 6394,
      "lleyball": 6395,
      "Microsoft": 6396,
      "Half": 6397,
      "freedom": 6398,
      "circum": 6399,
      "tattoo": 6400,
      "cosmetic": 6401,
      "42": 6402,
      "5th": 6403,
      "900": 6404,
      "::": 6405,
      "Aut": 6406,
      "App": 6407,
      "Ask": 6408,
      "CE": 6409,
      "Cr": 6410,
      "Cup": 6411,
      "Da": 6412,
      "Dal": 6413,
      "Ear": 6414,
      "Eli": 6415,
      "Ent": 6416,
      "Flor": 6417,
      "Gra": 6418,
      "Honest": 6419,
      "Jill": 6420,
      "Las": 6421,
      "Later": 6422,
      "Ming": 6423,
      "Play": 6424,
      "Rel": 6425,
      "Sto": 6426,
      "Swe": 6427,
      "Smo": 6428,
      "Stra": 6429,
      "Spain": 6430,
      "Tit": 6431,
      "Tex": 6432,
      "Under": 6433,
      "Wendy": 6434,
      "bone": 6435,
      "cti": 6436,
      "chas": 6437,
      "cery": 6438,
      "dresses": 6439,
      "elder": 6440,
      "fers": 6441,
      "gments": 6442,
      "hum": 6443,
      "ime": 6444,
      "imbur": 6445,
      "loo": 6446,
      "mac": 6447,
      "mbered": 6448,
      "narrow": 6449,
      "ored": 6450,
      "rink": 6451,
      "rash": 6452,
      "shave": 6453,
      "swear": 6454,
      "tti": 6455,
      "tiny": 6456,
      "vouch": 6457,
      "wound": 6458,
      "whit": 6459,
      "insp": 6460,
      "inspect": 6461,
      "reimbur": 6462,
      "theast": 6463,
      "toward": 6464,
      "towel": 6465,
      "towels": 6466,
      "hell": 6467,
      "sti": 6468,
      "leis": 6469,
      "beth": 6470,
      "bench": 6471,
      "andy": 6472,
      "enroll": 6473,
      "oosing": 6474,
      "alley": 6475,
      "dol": 6476,
      "coins": 6477,
      "acity": 6478,
      "adium": 6479,
      "administration": 6480,
      "sung": 6481,
      "ambit": 6482,
      "shu": 6483,
      "shoot": 6484,
      "feature": 6485,
      "urt": 6486,
      "exceed": 6487,
      "deb": 6488,
      "plum": 6489,
      "workshops": 6490,
      "conserv": 6491,
      "ender": 6492,
      "bled": 6493,
      "iger": 6494,
      "spill": 6495,
      "cheek": 6496,
      "cheated": 6497,
      "newly": 6498,
      "couch": 6499,
      "comer": 6500,
      "bush": 6501,
      "prison": 6502,
      "herself": 6503,
      "gum": 6504,
      "apparently": 6505,
      "internal": 6506,
      "finals": 6507,
      "airline": 6508,
      "disagree": 6509,
      "Reg": 6510,
      "nightmare": 6511,
      "puts": 6512,
      "estimate": 6513,
      "drama": 6514,
      "Pleased": 6515,
      "rum": 6516,
      "rumor": 6517,
      "housework": 6518,
      "positions": 6519,
      "maturity": 6520,
      "sidewalk": 6521,
      "drivers": 6522,
      "Anytime": 6523,
      "region": 6524,
      "wardrobe": 6525,
      "realtor": 6526,
      "fastest": 6527,
      "ictions": 6528,
      "curly": 6529,
      "scram": 6530,
      "expectations": 6531,
      "suites": 6532,
      "Life": 6533,
      "appointments": 6534,
      "certificates": 6535,
      "bandages": 6536,
      "billion": 6537,
      "painful": 6538,
      "tours": 6539,
      "tourni": 6540,
      "windy": 6541,
      "tasted": 6542,
      "awake": 6543,
      "facilities": 6544,
      "quicker": 6545,
      "profic": 6546,
      "arrives": 6547,
      "Tech": 6548,
      "cups": 6549,
      "floors": 6550,
      "buildings": 6551,
      "drops": 6552,
      "unex": 6553,
      "crimin": 6554,
      "discounts": 6555,
      "surprising": 6556,
      "Holly": 6557,
      "medication": 6558,
      "Boy": 6559,
      "publicity": 6560,
      "cashier": 6561,
      "ladder": 6562,
      "basement": 6563,
      "websites": 6564,
      "technic": 6565,
      "environmental": 6566,
      "organize": 6567,
      "gaining": 6568,
      "Cheer": 6569,
      "continu": 6570,
      "18th": 6571,
      "loading": 6572,
      "assistance": 6573,
      "blosso": 6574,
      "scientific": 6575,
      "warmer": 6576,
      "approved": 6577,
      "fuel": 6578,
      "dreams": 6579,
      "deadlines": 6580,
      "steamed": 6581,
      "complaining": 6582,
      "quarrel": 6583,
      "honeymoon": 6584,
      "storms": 6585,
      "immediate": 6586,
      "crowd": 6587,
      "watches": 6588,
      "Carl": 6589,
      "instructor": 6590,
      "engineering": 6591,
      "weaknesses": 6592,
      "champion": 6593,
      "exports": 6594,
      "cooperate": 6595,
      "stamp": 6596,
      "toothache": 6597,
      "sandwiches": 6598,
      "ginger": 6599,
      "spirits": 6600,
      "source": 6601,
      "assignment": 6602,
      "regards": 6603,
      "universe": 6604,
      "snacks": 6605,
      "provided": 6606,
      "Travell": 6607,
      "Mexican": 6608,
      "smoothly": 6609,
      "selected": 6610,
      "scarf": 6611,
      "initi": 6612,
      "knock": 6613,
      "analy": 6614,
      "Russian": 6615,
      "grocery": 6616,
      "lungs": 6617,
      "liquor": 6618,
      "cancelled": 6619,
      "vitamins": 6620,
      "passionate": 6621,
      "Opera": 6622,
      "frozen": 6623,
      "photographs": 6624,
      "recognize": 6625,
      "citiz": 6626,
      "rewarding": 6627,
      "alternatives": 6628,
      "Calm": 6629,
      "enthusiastic": 6630,
      "dumplings": 6631,
      "Sales": 6632,
      "canceled": 6633,
      "prompt": 6634,
      "inquire": 6635,
      "Interesting": 6636,
      "Latin": 6637,
      "Ladies": 6638,
      "powder": 6639,
      "relevant": 6640,
      "revocable": 6641,
      "Reserv": 6642,
      "Autumn": 6643,
      "tourniquet": 6644,
      "64": 6645,
      "67": 6646,
      "Ay": 6647,
      "Again": 6648,
      "Asia": 6649,
      "Ber": 6650,
      "CC": 6651,
      "Cha": 6652,
      "Cap": 6653,
      "Dor": 6654,
      "Dinner": 6655,
      "Easter": 6656,
      "Easy": 6657,
      "Friend": 6658,
      "Foods": 6659,
      "Ir": 6660,
      "Kim": 6661,
      "Must": 6662,
      "Muse": 6663,
      "Non": 6664,
      "Nah": 6665,
      "Oo": 6666,
      "Ouch": 6667,
      "PA": 6668,
      "Part": 6669,
      "Que": 6670,
      "Sho": 6671,
      "Seven": 6672,
      "Sum": 6673,
      "UK": 6674,
      "Use": 6675,
      "Visa": 6676,
      "bou": 6677,
      "bin": 6678,
      "boo": 6679,
      "bac": 6680,
      "baking": 6681,
      "baker": 6682,
      "breeze": 6683,
      "cen": 6684,
      "dread": 6685,
      "dough": 6686,
      "dise": 6687,
      "diction": 6688,
      "eh": 6689,
      "fy": 6690,
      "gust": 6691,
      "garet": 6692,
      "hide": 6693,
      "ibly": 6694,
      "jack": 6695,
      "jail": 6696,
      "kn": 6697,
      "lus": 6698,
      "lting": 6699,
      "lamp": 6700,
      "mbo": 6701,
      "mous": 6702,
      "nick": 6703,
      "pha": 6704,
      "pad": 6705,
      "packet": 6706,
      "swo": 6707,
      "signing": 6708,
      "tank": 6709,
      "tub": 6710,
      "vity": 6711,
      "vince": 6712,
      "xious": 6713,
      "zens": 6714,
      "thand": 6715,
      "thunderstor": 6716,
      "ream": 6717,
      "retired": 6718,
      "anket": 6719,
      "anley": 6720,
      "eries": 6721,
      "helle": 6722,
      "veled": 6723,
      "leak": 6724,
      "espres": 6725,
      "beaches": 6726,
      "ensure": 6727,
      "keeper": 6728,
      "ican": 6729,
      "wipe": 6730,
      "liday": 6731,
      "dose": 6732,
      "dozens": 6733,
      "chick": 6734,
      "choosing": 6735,
      "rious": 6736,
      "abor": 6737,
      "advis": 6738,
      "adults": 6739,
      "Its": 6740,
      "Wei": 6741,
      "Young": 6742,
      "tering": 6743,
      "lover": 6744,
      "raw": 6745,
      "rais": 6746,
      "ctual": 6747,
      "perform": 6748,
      "ives": 6749,
      "concept": 6750,
      "consum": 6751,
      "pos": 6752,
      "poison": 6753,
      "shoulders": 6754,
      "chedu": 6755,
      "premium": 6756,
      "comfort": 6757,
      "overall": 6758,
      "bug": 6759,
      "twist": 6760,
      "eking": 6761,
      "restr": 6762,
      "clou": 6763,
      "cious": 6764,
      "eping": 6765,
      "backpack": 6766,
      "traveled": 6767,
      "grind": 6768,
      "grace": 6769,
      "minton": 6770,
      "Thanksgiving": 6771,
      "pens": 6772,
      "carried": 6773,
      "closing": 6774,
      "intern": 6775,
      "fined": 6776,
      "blanket": 6777,
      "disk": 6778,
      "disput": 6779,
      "discovered": 6780,
      "learnt": 6781,
      "badminton": 6782,
      "oldest": 6783,
      "Todd": 6784,
      "classroom": 6785,
      "atherine": 6786,
      "earliest": 6787,
      "surf": 6788,
      "desire": 6789,
      "creation": 6790,
      "imports": 6791,
      "headed": 6792,
      "steward": 6793,
      "contro": 6794,
      "jewel": 6795,
      "muscles": 6796,
      "object": 6797,
      "Stay": 6798,
      "State": 6799,
      "Stanley": 6800,
      "walks": 6801,
      "pected": 6802,
      "fourteen": 6803,
      "scr": 6804,
      "20th": 6805,
      "naught": 6806,
      "advise": 6807,
      "advanced": 6808,
      "ointment": 6809,
      "founded": 6810,
      "suburb": 6811,
      "colorful": 6812,
      "sensitive": 6813,
      "travelers": 6814,
      "Going": 6815,
      "testing": 6816,
      "flag": 6817,
      "flick": 6818,
      "passing": 6819,
      "symbo": 6820,
      "winds": 6821,
      "crashed": 6822,
      "factories": 6823,
      "extro": 6824,
      "extent": 6825,
      "respond": 6826,
      "purchas": 6827,
      "posters": 6828,
      "atory": 6829,
      "foreigner": 6830,
      "practicing": 6831,
      "attendants": 6832,
      "stuffed": 6833,
      "eighty": 6834,
      "published": 6835,
      "Holiday": 6836,
      "slides": 6837,
      "Without": 6838,
      "advertised": 6839,
      "brands": 6840,
      "Margaret": 6841,
      "competent": 6842,
      "dieting": 6843,
      "opinions": 6844,
      "employers": 6845,
      "hospitality": 6846,
      "180": 6847,
      "fluently": 6848,
      "gasoline": 6849,
      "distin": 6850,
      "Michelle": 6851,
      "capacity": 6852,
      "equally": 6853,
      "Australian": 6854,
      "Carol": 6855,
      "buddy": 6856,
      "remembered": 6857,
      "proposed": 6858,
      "Germany": 6859,
      "powerful": 6860,
      "yoga": 6861,
      "decorated": 6862,
      "fingers": 6863,
      "buttons": 6864,
      "textbooks": 6865,
      "museums": 6866,
      "hills": 6867,
      "Grandma": 6868,
      "cruise": 6869,
      "Personally": 6870,
      "argument": 6871,
      "combined": 6872,
      "appearance": 6873,
      "economics": 6874,
      "suffered": 6875,
      "lobster": 6876,
      "21st": 6877,
      "independently": 6878,
      "religion": 6879,
      "Roberts": 6880,
      "Disney": 6881,
      "Termin": 6882,
      "participate": 6883,
      "collar": 6884,
      "efficiently": 6885,
      "Russia": 6886,
      "severe": 6887,
      "secure": 6888,
      "embarrassing": 6889,
      "rugby": 6890,
      "expanding": 6891,
      "ninety": 6892,
      "eventually": 6893,
      "principles": 6894,
      "Claim": 6895,
      "Jean": 6896,
      "slightly": 6897,
      "shift": 6898,
      "contains": 6899,
      "Econom": 6900,
      "nails": 6901,
      "negative": 6902,
      "complexion": 6903,
      "catalogue": 6904,
      "DEL": 6905,
      "Obama": 6906,
      "victi": 6907,
      "intellig": 6908,
      "brochure": 6909,
      "Music": 6910,
      "ocean": 6911,
      "mystery": 6912,
      "mathematics": 6913,
      "temporary": 6914,
      "Diana": 6915,
      "injured": 6916,
      "Twice": 6917,
      "pamph": 6918,
      "contrary": 6919,
      "quisite": 6920,
      "ignore": 6921,
      "pregnant": 6922,
      "Seattle": 6923,
      "Whenever": 6924,
      "aspirin": 6925,
      "hydrated": 6926,
      "appropriate": 6927,
      "Continued": 6928,
      "CEO": 6929,
      "Dalian": 6930,
      "Eliza": 6931,
      "Florida": 6932,
      "Smoking": 6933,
      "Straight": 6934,
      "Titanic": 6935,
      "Traveller": 6936,
      "Museum": 6937,
      "swollen": 6938,
      "espresso": 6939,
      "naughty": 6940,
      "110": 6941,
      "2000": 6942,
      "37": 6943,
      "48": 6944,
      "85": 6945,
      "87": 6946,
      "Big": 6947,
      "Broad": 6948,
      "CV": 6949,
      "Cant": 6950,
      "Cus": 6951,
      "Cath": 6952,
      "Done": 6953,
      "Deve": 6954,
      "During": 6955,
      "Egy": 6956,
      "Hill": 6957,
      "IK": 6958,
      "IQ": 6959,
      "Ice": 6960,
      "Jord": 6961,
      "Ling": 6962,
      "NT": 6963,
      "NY": 6964,
      "Ni": 6965,
      "Nine": 6966,
      "Oscar": 6967,
      "Oaks": 6968,
      "Pas": 6969,
      "Pick": 6970,
      "Power": 6971,
      "Pizza": 6972,
      "RE": 6973,
      "Ret": 6974,
      "Sou": 6975,
      "Shi": 6976,
      "Simp": 6977,
      "Still": 6978,
      "Tower": 6979,
      "Var": 6980,
      "XY": 6981,
      "bail": 6982,
      "biz": 6983,
      "boots": 6984,
      "cet": 6985,
      "eigh": 6986,
      "fou": 6987,
      "gic": 6988,
      "ius": 6989,
      "jin": 6990,
      "ky": 6991,
      "lates": 6992,
      "loun": 6993,
      "mal": 6994,
      "mouse": 6995,
      "mignon": 6996,
      "ole": 6997,
      "pant": 6998,
      "pong": 6999,
      "va": 7000,
      "wars": 7001,
      "yen": 7002,
      "infect": 7003,
      "insured": 7004,
      "reporter": 7005,
      "remittance": 7006,
      "onents": 7007,
      "oral": 7008,
      "itiner": 7009,
      "stall": 7010,
      "stable": 7011,
      "becomes": 7012,
      "anda": 7013,
      "forced": 7014,
      "edition": 7015,
      "lips": 7016,
      "dom": 7017,
      "chief": 7018,
      "outdoors": 7019,
      "actors": 7020,
      "adian": 7021,
      "admission": 7022,
      "lyn": 7023,
      "gosh": 7024,
      "gomer": 7025,
      "onese": 7026,
      "sund": 7027,
      "pear": 7028,
      "someday": 7029,
      "somehow": 7030,
      "fellow": 7031,
      "Through": 7032,
      "ankle": 7033,
      "Health": 7034,
      "washer": 7035,
      "excl": 7036,
      "exquisite": 7037,
      "dehydrated": 7038,
      "providing": 7039,
      "mental": 7040,
      "artist": 7041,
      "persu": 7042,
      "unci": 7043,
      "romise": 7044,
      "compared": 7045,
      "spread": 7046,
      "spacious": 7047,
      "cheques": 7048,
      "Canadian": 7049,
      "actions": 7050,
      "overhead": 7051,
      "ousy": 7052,
      "wellery": 7053,
      "brake": 7054,
      "ketch": 7055,
      "intersection": 7056,
      "dim": 7057,
      "integr": 7058,
      "nerve": 7059,
      "angers": 7060,
      "dragon": 7061,
      "High": 7062,
      "Inn": 7063,
      "learner": 7064,
      "ilding": 7065,
      "imple": 7066,
      "visitor": 7067,
      "classified": 7068,
      "differences": 7069,
      "matt": 7070,
      "surround": 7071,
      "Nowadays": 7072,
      "shared": 7073,
      "cleared": 7074,
      "importance": 7075,
      "produc": 7076,
      "lists": 7077,
      "childhood": 7078,
      "beautifully": 7079,
      "lifestyle": 7080,
      "salty": 7081,
      "Whole": 7082,
      "string": 7083,
      "Station": 7084,
      "invoking": 7085,
      "interviewed": 7086,
      "banker": 7087,
      "fridge": 7088,
      "scrat": 7089,
      "rained": 7090,
      "vacancy": 7091,
      "healthier": 7092,
      "cooker": 7093,
      "flood": 7094,
      "flash": 7095,
      "relatively": 7096,
      "password": 7097,
      "conflic": 7098,
      "confusing": 7099,
      "begins": 7100,
      "wholesale": 7101,
      "factor": 7102,
      "reported": 7103,
      "seventh": 7104,
      "extend": 7105,
      "cupboard": 7106,
      "pursu": 7107,
      "purple": 7108,
      "taxes": 7109,
      "uccin": 7110,
      "cooler": 7111,
      "attendance": 7112,
      "grapes": 7113,
      "nicer": 7114,
      "media": 7115,
      "magic": 7116,
      "volleyball": 7117,
      "coverage": 7118,
      "invent": 7119,
      "Trading": 7120,
      "worthwhile": 7121,
      "25th": 7122,
      "introverted": 7123,
      "leaders": 7124,
      "Comput": 7125,
      "electrical": 7126,
      "introduction": 7127,
      "percentage": 7128,
      "burgers": 7129,
      "Mostly": 7130,
      "improved": 7131,
      "operator": 7132,
      "grandma": 7133,
      "Cheques": 7134,
      "loads": 7135,
      "Grant": 7136,
      "killer": 7137,
      "issued": 7138,
      "dreaming": 7139,
      "taller": 7140,
      "accidentally": 7141,
      "coats": 7142,
      "celebration": 7143,
      "Foster": 7144,
      "Lucky": 7145,
      "dishonest": 7146,
      "spoil": 7147,
      "polling": 7148,
      "cuis": 7149,
      "screw": 7150,
      "colleague": 7151,
      "Conne": 7152,
      "flew": 7153,
      "involves": 7154,
      "castle": 7155,
      "safely": 7156,
      "Huang": 7157,
      "Supp": 7158,
      "connections": 7159,
      "deserved": 7160,
      "adapt": 7161,
      "expression": 7162,
      "exhibits": 7163,
      "Accounting": 7164,
      "circle": 7165,
      "ancies": 7166,
      "emphas": 7167,
      "Building": 7168,
      "challenges": 7169,
      "banan": 7170,
      "brakes": 7171,
      "chairs": 7172,
      "candidates": 7173,
      "status": 7174,
      "contribute": 7175,
      "contribution": 7176,
      "attracted": 7177,
      "occasionally": 7178,
      "resource": 7179,
      "porterhouse": 7180,
      "Francisco": 7181,
      "knocked": 7182,
      "announced": 7183,
      "itute": 7184,
      "symptoms": 7185,
      "Korean": 7186,
      "River": 7187,
      "Williams": 7188,
      "shorter": 7189,
      "shorthand": 7190,
      "embarrassed": 7191,
      "harmful": 7192,
      "CPR": 7193,
      "hunting": 7194,
      "pilgri": 7195,
      "constantly": 7196,
      "mechanical": 7197,
      "rapid": 7198,
      "costumes": 7199,
      "shouting": 7200,
      "Kitty": 7201,
      "accommod": 7202,
      "pronunci": 7203,
      "civil": 7204,
      "sneakers": 7205,
      "Montgomer": 7206,
      "Blue": 7207,
      "fiancee": 7208,
      "Christian": 7209,
      "summers": 7210,
      "bracelet": 7211,
      "significant": 7212,
      "fascinating": 7213,
      "inquiry": 7214,
      "intense": 7215,
      "circulation": 7216,
      "circumstances": 7217,
      "cosmetics": 7218,
      "Honestly": 7219,
      "unexpected": 7220,
      "Oops": 7221,
      "stewardess": 7222,
      "scratch": 7223,
      "purchasing": 7224,
      "Elizabeth": 7225,
      "Cantonese": 7226,
      "Develo": 7227,
      "IKE": 7228,
      "Jordan": 7229,
      "XYZ": 7230,
      "eighth": 7231,
      "lounge": 7232,
      "Montgomery": 7233,
      "41": 7234,
      "59": 7235,
      "Bal": 7236,
      "Bud": 7237,
      "Cut": 7238,
      "Cra": 7239,
      "Cel": 7240,
      "Cross": 7241,
      "Field": 7242,
      "Garden": 7243,
      "Mother": 7244,
      "Money": 7245,
      "Much": 7246,
      "Old": 7247,
      "Osc": 7248,
      "Pan": 7249,
      "Ple": 7250,
      "Pen": 7251,
      "Pho": 7252,
      "Pass": 7253,
      "Plus": 7254,
      "Peking": 7255,
      "Ron": 7256,
      "Rachel": 7257,
      "Ton": 7258,
      "Tea": 7259,
      "Terry": 7260,
      "Tiger": 7261,
      "Ugh": 7262,
      "Ver": 7263,
      "Vic": 7264,
      "Wal": 7265,
      "Wars": 7266,
      "Winter": 7267,
      "Yo": 7268,
      "aco": 7269,
      "bind": 7270,
      "blog": 7271,
      "cm": 7272,
      "dine": 7273,
      "dity": 7274,
      "fto": 7275,
      "gig": 7276,
      "gurt": 7277,
      "hid": 7278,
      "kers": 7279,
      "lousy": 7280,
      "mil": 7281,
      "nam": 7282,
      "native": 7283,
      "oid": 7284,
      "pill": 7285,
      "sions": 7286,
      "ump": 7287,
      "valent": 7288,
      "wanese": 7289,
      "yram": 7290,
      "zers": 7291,
      "thony": 7292,
      "inum": 7293,
      "reve": 7294,
      "rehen": 7295,
      "refill": 7296,
      "reconfirm": 7297,
      "atmeal": 7298,
      "tori": 7299,
      "vest": 7300,
      "stones": 7301,
      "sem": 7302,
      "semi": 7303,
      "seated": 7304,
      "lefto": 7305,
      "arn": 7306,
      "editor": 7307,
      "lds": 7308,
      "socks": 7309,
      "liar": 7310,
      "lims": 7311,
      "ligent": 7312,
      "chili": 7313,
      "idential": 7314,
      "coal": 7315,
      "cosmo": 7316,
      "coinc": 7317,
      "yourselves": 7318,
      "absence": 7319,
      "accent": 7320,
      "adult": 7321,
      "irr": 7322,
      "irrevocable": 7323,
      "suited": 7324,
      "suffic": 7325,
      "tial": 7326,
      "tiles": 7327,
      "shining": 7328,
      "daytime": 7329,
      "ague": 7330,
      "loses": 7331,
      "ushes": 7332,
      "thered": 7333,
      "pers": 7334,
      "workout": 7335,
      "convey": 7336,
      "unable": 7337,
      "nov": 7338,
      "nomin": 7339,
      "quote": 7340,
      "quitting": 7341,
      "ureau": 7342,
      "ilty": 7343,
      "helmet": 7344,
      "amend": 7345,
      "spin": 7346,
      "spray": 7347,
      "newcomer": 7348,
      "Andrew": 7349,
      "boiled": 7350,
      "Isa": 7351,
      "comments": 7352,
      "overcome": 7353,
      "fox": 7354,
      "manic": 7355,
      "roommates": 7356,
      "sheep": 7357,
      "weekly": 7358,
      "species": 7359,
      "guilty": 7360,
      "maid": 7361,
      "stopping": 7362,
      "Therefore": 7363,
      "grant": 7364,
      "happiness": 7365,
      "wherever": 7366,
      "buyers": 7367,
      "penalty": 7368,
      "cara": 7369,
      "diligent": 7370,
      "district": 7371,
      "disgust": 7372,
      "nues": 7373,
      "Exchange": 7374,
      "Except": 7375,
      "dram": 7376,
      "drag": 7377,
      "pharm": 7378,
      "Cope": 7379,
      "lighting": 7380,
      "handy": 7381,
      "ordering": 7382,
      "earrings": 7383,
      "lively": 7384,
      "reschedu": 7385,
      "persons": 7386,
      "shade": 7387,
      "singsong": 7388,
      "heads": 7389,
      "headaches": 7390,
      "parent": 7391,
      "version": 7392,
      "freeze": 7393,
      "signal": 7394,
      "Front": 7395,
      "unted": 7396,
      "content": 7397,
      "Looking": 7398,
      "jewellery": 7399,
      "agreeable": 7400,
      "expense": 7401,
      "salaries": 7402,
      "ballot": 7403,
      "curry": 7404,
      "cutting": 7405,
      "bankrupt": 7406,
      "auction": 7407,
      "sleeper": 7408,
      "privac": 7409,
      "certi": 7410,
      "cashme": 7411,
      "shorts": 7412,
      "popcorn": 7413,
      "population": 7414,
      "Anthony": 7415,
      "packaging": 7416,
      "painted": 7417,
      "tourists": 7418,
      "custom": 7419,
      "cliff": 7420,
      "Shan": 7421,
      "lane": 7422,
      "mascara": 7423,
      "deposits": 7424,
      "depositing": 7425,
      "Mei": 7426,
      "bio": 7427,
      "polish": 7428,
      "wheat": 7429,
      "scheme": 7430,
      "identity": 7431,
      "closely": 7432,
      "relaxation": 7433,
      "treats": 7434,
      "treating": 7435,
      "magn": 7436,
      "Jackson": 7437,
      "investor": 7438,
      "Trade": 7439,
      "porters": 7440,
      "tempting": 7441,
      "successfully": 7442,
      "Taiwanese": 7443,
      "performances": 7444,
      "Billy": 7445,
      "answering": 7446,
      "burnt": 7447,
      "stockholders": 7448,
      "Getting": 7449,
      "Marry": 7450,
      "Cheers": 7451,
      "sighted": 7452,
      "accu": 7453,
      "accidents": 7454,
      "spectac": 7455,
      "roller": 7456,
      "seasons": 7457,
      "Secur": 7458,
      "increasing": 7459,
      "distri": 7460,
      "warn": 7461,
      "chocolates": 7462,
      "industrial": 7463,
      "nonsmoking": 7464,
      "bonuses": 7465,
      "pulling": 7466,
      "scope": 7467,
      "throwing": 7468,
      "fortunate": 7469,
      "desserts": 7470,
      "jams": 7471,
      "spoke": 7472,
      "bowling": 7473,
      "knowledgments": 7474,
      "scenes": 7475,
      "levels": 7476,
      "deeply": 7477,
      "guaranteed": 7478,
      "Services": 7479,
      "experiencing": 7480,
      "creating": 7481,
      "micro": 7482,
      "Art": 7483,
      "polluted": 7484,
      "critical": 7485,
      "bellboy": 7486,
      "agrees": 7487,
      "equipments": 7488,
      "Moreover": 7489,
      "rarely": 7490,
      "achievements": 7491,
      "motiv": 7492,
      "encouraging": 7493,
      "Feel": 7494,
      "installation": 7495,
      "galax": 7496,
      "talented": 7497,
      "Corporate": 7498,
      "Sandy": 7499,
      "platinum": 7500,
      "Terrific": 7501,
      "leadership": 7502,
      "commercials": 7503,
      "subscription": 7504,
      "sweaters": 7505,
      "method": 7506,
      "grocer": 7507,
      "explore": 7508,
      "enterprises": 7509,
      "frustrated": 7510,
      "stealing": 7511,
      "Jessica": 7512,
      "costume": 7513,
      "nutrition": 7514,
      "Brazil": 7515,
      "Brazili": 7516,
      "chopsticks": 7517,
      "neighbourhood": 7518,
      "suffering": 7519,
      "Malay": 7520,
      "committee": 7521,
      "landscape": 7522,
      "demonstr": 7523,
      "seminar": 7524,
      "luxury": 7525,
      "essential": 7526,
      "accurate": 7527,
      "philosophy": 7528,
      "aerobics": 7529,
      "manufacturers": 7530,
      "Relax": 7531,
      "reimburse": 7532,
      "leisure": 7533,
      "conservative": 7534,
      "proficient": 7535,
      "Hollywood": 7536,
      "blossoms": 7537,
      "Irish": 7538,
      "bouquet": 7539,
      "jewelry": 7540,
      "extroverted": 7541,
      "Broadway": 7542,
      "uccino": 7543,
      "IKEA": 7544,
      "Oscars": 7545,
      "sufficient": 7546,
      "privacy": 7547,
      "05": 7548,
      "31": 7549,
      "7th": 7550,
      "84": 7551,
      "89": 7552,
      "850": 7553,
      "Adam": 7554,
      "Best": 7555,
      "CA": 7556,
      "Ce": 7557,
      "Clive": 7558,
      "Cds": 7559,
      "Catherine": 7560,
      "Del": 7561,
      "Darling": 7562,
      "Ether": 7563,
      "Fac": 7564,
      "Gone": 7565,
      "Greg": 7566,
      "Hans": 7567,
      "Hang": 7568,
      "Hallow": 7569,
      "La": 7570,
      "MB": 7571,
      "Number": 7572,
      "Pu": 7573,
      "Pri": 7574,
      "Pol": 7575,
      "Pod": 7576,
      "Sme": 7577,
      "Sign": 7578,
      "Small": 7579,
      "Tre": 7580,
      "Vi": 7581,
      "Woo": 7582,
      "blast": 7583,
      "bothers": 7584,
      "ders": 7585,
      "emot": 7586,
      "fus": 7587,
      "fau": 7588,
      "fountain": 7589,
      "gies": 7590,
      "greet": 7591,
      "guts": 7592,
      "hong": 7593,
      "hint": 7594,
      "hits": 7595,
      "hmm": 7596,
      "ially": 7597,
      "jar": 7598,
      "kong": 7599,
      "kung": 7600,
      "lam": 7601,
      "lung": 7602,
      "oatmeal": 7603,
      "pment": 7604,
      "rab": 7605,
      "rant": 7606,
      "rally": 7607,
      "rase": 7608,
      "rhy": 7609,
      "sake": 7610,
      "scent": 7611,
      "satur": 7612,
      "vary": 7613,
      "vital": 7614,
      "wings": 7615,
      "wagon": 7616,
      "tha": 7617,
      "inexpensive": 7618,
      "inches": 7619,
      "rem": 7620,
      "rease": 7621,
      "reject": 7622,
      "reunion": 7623,
      "revol": 7624,
      "anxious": 7625,
      "onion": 7626,
      "lls": 7627,
      "orang": 7628,
      "orient": 7629,
      "itches": 7630,
      "healed": 7631,
      "stadium": 7632,
      "sections": 7633,
      "arbit": 7634,
      "esy": 7635,
      "hack": 7636,
      "entered": 7637,
      "ooke": 7638,
      "forbidden": 7639,
      "asha": 7640,
      "assu": 7641,
      "associ": 7642,
      "soph": 7643,
      "liking": 7644,
      "dot": 7645,
      "ching": 7646,
      "chart": 7647,
      "chinese": 7648,
      "arer": 7649,
      "otic": 7650,
      "rop": 7651,
      "outlet": 7652,
      "abase": 7653,
      "acqu": 7654,
      "ndid": 7655,
      "susp": 7656,
      "teries": 7657,
      "plendid": 7658,
      "pean": 7659,
      "fel": 7660,
      "female": 7661,
      "tears": 7662,
      "hopes": 7663,
      "seeking": 7664,
      "deck": 7665,
      "ppuccino": 7666,
      "ctic": 7667,
      "perks": 7668,
      "permitted": 7669,
      "gel": 7670,
      "geography": 7671,
      "hilar": 7672,
      "unnecessary": 7673,
      "unbear": 7674,
      "ulty": 7675,
      "blew": 7676,
      "blend": 7677,
      "compact": 7678,
      "components": 7679,
      "spit": 7680,
      "chew": 7681,
      "precious": 7682,
      "bosses": 7683,
      "owned": 7684,
      "pray": 7685,
      "prot": 7686,
      "priced": 7687,
      "mba": 7688,
      "twenti": 7689,
      "restroom": 7690,
      "lotion": 7691,
      "mango": 7692,
      "manner": 7693,
      "typed": 7694,
      "shed": 7695,
      "sheer": 7696,
      "ously": 7697,
      "cia": 7698,
      "counts": 7699,
      "cavity": 7700,
      "rows": 7701,
      "mailed": 7702,
      "stomac": 7703,
      "merce": 7704,
      "penny": 7705,
      "caring": 7706,
      "dime": 7707,
      "margin": 7708,
      "blown": 7709,
      "bloom": 7710,
      "rented": 7711,
      "homeless": 7712,
      "torney": 7713,
      "estate": 7714,
      "Bell": 7715,
      "licence": 7716,
      "suppor": 7717,
      "supplier": 7718,
      "thoughts": 7719,
      "residence": 7720,
      "skip": 7721,
      "shares": 7722,
      "sings": 7723,
      "dying": 7724,
      "dynasty": 7725,
      "funeral": 7726,
      "steel": 7727,
      "steep": 7728,
      "attached": 7729,
      "specials": 7730,
      "Forbidden": 7731,
      "Move": 7732,
      "curfew": 7733,
      "obtain": 7734,
      "filling": 7735,
      "missions": 7736,
      "interviewers": 7737,
      "beings": 7738,
      "ggle": 7739,
      "nause": 7740,
      "pub": 7741,
      "pupp": 7742,
      "izes": 7743,
      "solved": 7744,
      "weatherman": 7745,
      "Associ": 7746,
      "smoked": 7747,
      "primary": 7748,
      "vacancies": 7749,
      "suggested": 7750,
      "subst": 7751,
      "dealer": 7752,
      "genius": 7753,
      "valid": 7754,
      "values": 7755,
      "recipes": 7756,
      "parked": 7757,
      "flour": 7758,
      "floods": 7759,
      "availability": 7760,
      "tourism": 7761,
      "acceptance": 7762,
      "bara": 7763,
      "lantern": 7764,
      "salesman": 7765,
      "faces": 7766,
      "factors": 7767,
      "reporting": 7768,
      "123": 7769,
      "12th": 7770,
      "metres": 7771,
      "virt": 7772,
      "receiver": 7773,
      "practise": 7774,
      "grap": 7775,
      "ctors": 7776,
      "pressing": 7777,
      "placing": 7778,
      "ification": 7779,
      "medicines": 7780,
      "applicants": 7781,
      "heavily": 7782,
      "examples": 7783,
      "sticker": 7784,
      "Loans": 7785,
      "burgl": 7786,
      "flyer": 7787,
      "queue": 7788,
      "winner": 7789,
      "ahoo": 7790,
      "sights": 7791,
      "competitors": 7792,
      "delicate": 7793,
      "bloody": 7794,
      "401": 7795,
      "loaded": 7796,
      "ugly": 7797,
      "Word": 7798,
      "charging": 7799,
      "apore": 7800,
      "snowing": 7801,
      "16th": 7802,
      "imagined": 7803,
      "turkey": 7804,
      "fundrais": 7805,
      "situations": 7806,
      "flesh": 7807,
      "memories": 7808,
      "scenic": 7809,
      "jumping": 7810,
      "Hua": 7811,
      "Human": 7812,
      "radi": 7813,
      "instrument": 7814,
      "swing": 7815,
      "yogurt": 7816,
      "exhibitions": 7817,
      "Barbara": 7818,
      "graphic": 7819,
      "Arden": 7820,
      "Airport": 7821,
      "14th": 7822,
      "ethnic": 7823,
      "viol": 7824,
      "cartrid": 7825,
      "bargaining": 7826,
      "originally": 7827,
      "Clint": 7828,
      "audi": 7829,
      "mutual": 7830,
      "nursing": 7831,
      "alcoholic": 7832,
      "dumped": 7833,
      "caffe": 7834,
      "database": 7835,
      "failure": 7836,
      "Singapore": 7837,
      "butterfly": 7838,
      "isticated": 7839,
      "browse": 7840,
      "browsing": 7841,
      "buns": 7842,
      "subscribe": 7843,
      "procedures": 7844,
      "frankly": 7845,
      "galleries": 7846,
      "electronics": 7847,
      "www": 7848,
      "conclus": 7849,
      "consists": 7850,
      "napkins": 7851,
      "automobile": 7852,
      "strawberries": 7853,
      "shifts": 7854,
      "lemonade": 7855,
      "bricks": 7856,
      "Joanne": 7857,
      "Geez": 7858,
      "released": 7859,
      "determine": 7860,
      "journalism": 7861,
      "Malia": 7862,
      "Nanjing": 7863,
      "equipped": 7864,
      "feedback": 7865,
      "destroyed": 7866,
      "Awesome": 7867,
      "bumper": 7868,
      "frightened": 7869,
      "indication": 7870,
      "diplo": 7871,
      "athletes": 7872,
      "techniques": 7873,
      "Langu": 7874,
      "Simon": 7875,
      "pouring": 7876,
      "scientists": 7877,
      "Beautif": 7878,
      "latte": 7879,
      "opard": 7880,
      "pulse": 7881,
      "delighted": 7882,
      "construction": 7883,
      "puzzles": 7884,
      "handicapped": 7885,
      "Desk": 7886,
      "tidy": 7887,
      "interpreter": 7888,
      "predictable": 7889,
      "Earth": 7890,
      "Sweet": 7891,
      "spilled": 7892,
      "scrambled": 7893,
      "Queen": 7894,
      "Summer": 7895,
      "boost": 7896,
      "bacon": 7897,
      "disease": 7898,
      "dictionary": 7899,
      "suburbs": 7900,
      "intelligent": 7901,
      "pamphlet": 7902,
      "mattress": 7903,
      "Development": 7904,
      "Fields": 7905,
      "Copeland": 7906,
      "groceries": 7907,
      "Brazilian": 7908,
      "Ethernet": 7909,
      "Halloween": 7910,
      "faucet": 7911,
      "rabbit": 7912,
      "oranges": 7913,
      "sophisticated": 7914,
      "stomacha": 7915,
      "130": 7916,
      "260": 7917,
      "6th": 7918,
      "Au": 7919,
      "Award": 7920,
      "Agree": 7921,
      "Amand": 7922,
      "ASA": 7923,
      "BE": 7924,
      "Bre": 7925,
      "Bon": 7926,
      "Bing": 7927,
      "Bay": 7928,
      "Bot": 7929,
      "Bark": 7930,
      "Bachelor": 7931,
      "CR": 7932,
      "Cu": 7933,
      "Cy": 7934,
      "CLA": 7935,
      "Dy": 7936,
      "Dou": 7937,
      "Dep": 7938,
      "Dark": 7939,
      "EF": 7940,
      "EQ": 7941,
      "Emb": 7942,
      "Employment": 7943,
      "Fu": 7944,
      "Far": 7945,
      "Fall": 7946,
      "Fort": 7947,
      "Fix": 7948,
      "Hm": 7949,
      "Han": 7950,
      "Horn": 7951,
      "Jing": 7952,
      "Jose": 7953,
      "Jaco": 7954,
      "Lt": 7955,
      "Lou": 7956,
      "Mat": 7957,
      "Might": 7958,
      "Matt": 7959,
      "MBA": 7960,
      "Name": 7961,
      "Ow": 7962,
      "PR": 7963,
      "Ph": 7964,
      "Pac": 7965,
      "Pars": 7966,
      "Psy": 7967,
      "Run": 7968,
      "Set": 7969,
      "Sony": 7970,
      "Tor": 7971,
      "Test": 7972,
      "Tele": 7973,
      "UFO": 7974,
      "UCLA": 7975,
      "Vis": 7976,
      "Water": 7977,
      "Xi": 7978,
      "awhile": 7979,
      "bing": 7980,
      "bis": 7981,
      "bble": 7982,
      "bang": 7983,
      "blocked": 7984,
      "baked": 7985,
      "cke": 7986,
      "cise": 7987,
      "culations": 7988,
      "dup": 7989,
      "deduc": 7990,
      "ethe": 7991,
      "ease": 7992,
      "fal": 7993,
      "fying": 7994,
      "gle": 7995,
      "hiding": 7996,
      "ka": 7997,
      "kok": 7998,
      "kespe": 7999,
      "liness": 8000,
      "mally": 8001,
      "ox": 8002,
      "oy": 8003,
      "oily": 8004,
      "olic": 8005,
      "pile": 8006,
      "rac": 8007,
      "rist": 8008,
      "rage": 8009,
      "rides": 8010,
      "scan": 8011,
      "slic": 8012,
      "scold": 8013,
      "sins": 8014,
      "tou": 8015,
      "tread": 8016,
      "task": 8017,
      "tap": 8018,
      "tune": 8019,
      "uine": 8020,
      "vine": 8021,
      "waff": 8022,
      "thai": 8023,
      "ounts": 8024,
      "inat": 8025,
      "inic": 8026,
      "insu": 8027,
      "intake": 8028,
      "inven": 8029,
      "infection": 8030,
      "recall": 8031,
      "repay": 8032,
      "remit": 8033,
      "repayment": 8034,
      "anie": 8035,
      "anmen": 8036,
      "thedr": 8037,
      "thetic": 8038,
      "attorney": 8039,
      "toy": 8040,
      "token": 8041,
      "merely": 8042,
      "iso": 8043,
      "vegg": 8044,
      "stiff": 8045,
      "hah": 8046,
      "bee": 8047,
      "beli": 8048,
      "ene": 8049,
      "hates": 8050,
      "aside": 8051,
      "ashes": 8052,
      "assess": 8053,
      "som": 8054,
      "domin": 8055,
      "chron": 8056,
      "ution": 8057,
      "utens": 8058,
      "verse": 8059,
      "idio": 8060,
      "outline": 8061,
      "actor": 8062,
      "accusto": 8063,
      "admitted": 8064,
      "amin": 8065,
      "amer": 8066,
      "amounts": 8067,
      "tili": 8068,
      "timing": 8069,
      "tex": 8070,
      "temple": 8071,
      "Thou": 8072,
      "agger": 8073,
      "agric": 8074,
      "notify": 8075,
      "excess": 8076,
      "exagger": 8077,
      "ppery": 8078,
      "raising": 8079,
      "Doing": 8080,
      "mulate": 8081,
      "munic": 8082,
      "consign": 8083,
      "conserve": 8084,
      "conferences": 8085,
      "convince": 8086,
      "uncture": 8087,
      "unfurnished": 8088,
      "nover": 8089,
      "needing": 8090,
      "needles": 8091,
      "elbow": 8092,
      "ckily": 8093,
      "itecture": 8094,
      "essay": 8095,
      "spaces": 8096,
      "prefers": 8097,
      "trot": 8098,
      "Soci": 8099,
      "cousins": 8100,
      "bodies": 8101,
      "bothered": 8102,
      "partners": 8103,
      "bugs": 8104,
      "bulence": 8105,
      "ishment": 8106,
      "fold": 8107,
      "manual": 8108,
      "clam": 8109,
      "clinic": 8110,
      "Letter": 8111,
      "saus": 8112,
      "sailing": 8113,
      "gues": 8114,
      "cipl": 8115,
      "episo": 8116,
      "backs": 8117,
      "Chicken": 8118,
      "wondered": 8119,
      "silent": 8120,
      "kindness": 8121,
      "uded": 8122,
      "buys": 8123,
      "merous": 8124,
      "cloths": 8125,
      "division": 8126,
      "wrink": 8127,
      "beforehand": 8128,
      "blon": 8129,
      "impol": 8130,
      "disappear": 8131,
      "disadvantages": 8132,
      "discipl": 8133,
      "Vegas": 8134,
      "nerves": 8135,
      "hardcover": 8136,
      "cords": 8137,
      "cares": 8138,
      "tonic": 8139,
      "Instead": 8140,
      "showers": 8141,
      "phrase": 8142,
      "ruined": 8143,
      "studio": 8144,
      "shopped": 8145,
      "lighter": 8146,
      "handled": 8147,
      "planes": 8148,
      "cused": 8149,
      "dolls": 8150,
      "hottest": 8151,
      "fertili": 8152,
      "enjoys": 8153,
      "desert": 8154,
      "resistant": 8155,
      "shaped": 8156,
      "portions": 8157,
      "producing": 8158,
      "roughly": 8159,
      "Anyhow": 8160,
      "freeway": 8161,
      "freezer": 8162,
      "importantly": 8163,
      "cession": 8164,
      "informal": 8165,
      "informative": 8166,
      "ulture": 8167,
      "sends": 8168,
      "farming": 8169,
      "moves": 8170,
      "movements": 8171,
      "curb": 8172,
      "Stand": 8173,
      "Stone": 8174,
      "wore": 8175,
      "cuts": 8176,
      "mails": 8177,
      "thirties": 8178,
      "507": 8179,
      "picky": 8180,
      "begun": 8181,
      "prizes": 8182,
      "freel": 8183,
      "aire": 8184,
      "terrified": 8185,
      "News": 8186,
      "genuine": 8187,
      "Gosh": 8188,
      "recipe": 8189,
      "transmission": 8190,
      "holder": 8191,
      "confess": 8192,
      "facts": 8193,
      "drawn": 8194,
      "Dean": 8195,
      "crown": 8196,
      "programming": 8197,
      "Bridge": 8198,
      "Brooke": 8199,
      "Mean": 8200,
      "biography": 8201,
      "bikin": 8202,
      "Saturdays": 8203,
      "boxing": 8204,
      "Temple": 8205,
      "postp": 8206,
      "postage": 8207,
      "majoring": 8208,
      "pancakes": 8209,
      "architecture": 8210,
      "engagement": 8211,
      "Bobby": 8212,
      "eighteen": 8213,
      "voc": 8214,
      "drawing": 8215,
      "2002": 8216,
      "worthy": 8217,
      "petrol": 8218,
      "refused": 8219,
      "Home": 8220,
      "lenses": 8221,
      "publication": 8222,
      "applications": 8223,
      "horses": 8224,
      "necessarily": 8225,
      "investing": 8226,
      "invested": 8227,
      "damages": 8228,
      "balanced": 8229,
      "burst": 8230,
      "printing": 8231,
      "operating": 8232,
      "grandpa": 8233,
      "tificial": 8234,
      "continental": 8235,
      "millan": 8236,
      "starter": 8237,
      "Wangfu": 8238,
      "mistry": 8239,
      "occur": 8240,
      "lectures": 8241,
      "sweetie": 8242,
      "Danny": 8243,
      "candle": 8244,
      "shipped": 8245,
      "industries": 8246,
      "nonsense": 8247,
      "apology": 8248,
      "squee": 8249,
      "messed": 8250,
      "increases": 8251,
      "Banking": 8252,
      "Luckily": 8253,
      "calories": 8254,
      "calculations": 8255,
      "turnover": 8256,
      "Euros": 8257,
      "Suzhou": 8258,
      "honored": 8259,
      "connecting": 8260,
      "struck": 8261,
      "pedal": 8262,
      "urgently": 8263,
      "expressions": 8264,
      "Administration": 8265,
      "Macmillan": 8266,
      "gardening": 8267,
      "promising": 8268,
      "protection": 8269,
      "Airline": 8270,
      "communicating": 8271,
      "consump": 8272,
      "Normally": 8273,
      "tube": 8274,
      "repairs": 8275,
      "repairing": 8276,
      "crossing": 8277,
      "limits": 8278,
      "Buy": 8279,
      "Bush": 8280,
      "kicking": 8281,
      "palace": 8282,
      "golden": 8283,
      "typist": 8284,
      "cruel": 8285,
      "politan": 8286,
      "mutton": 8287,
      "fools": 8288,
      "vanilla": 8289,
      "demanding": 8290,
      "Kobe": 8291,
      "Resour": 8292,
      "experts": 8293,
      "receptionist": 8294,
      "statue": 8295,
      "Studying": 8296,
      "volume": 8297,
      "butterflies": 8298,
      "Charlie": 8299,
      "Secondly": 8300,
      "McDonald": 8301,
      "briefcase": 8302,
      "broadband": 8303,
      "authority": 8304,
      "catalog": 8305,
      "VIP": 8306,
      "dormi": 8307,
      "blouses": 8308,
      "adopt": 8309,
      "risky": 8310,
      "Sixty": 8311,
      "session": 8312,
      "cheerful": 8313,
      "conclude": 8314,
      "tomatoes": 8315,
      "consist": 8316,
      "historic": 8317,
      "defense": 8318,
      "Counter": 8319,
      "Economy": 8320,
      "psychology": 8321,
      "translation": 8322,
      "humorous": 8323,
      "Miller": 8324,
      "equivalent": 8325,
      "landscapes": 8326,
      "captain": 8327,
      "technique": 8328,
      "Bangkok": 8329,
      "FOB": 8330,
      "evaluation": 8331,
      "envelopes": 8332,
      "objective": 8333,
      "Import": 8334,
      "beneficial": 8335,
      "Robinson": 8336,
      "Nathan": 8337,
      "Shakespe": 8338,
      "knees": 8339,
      "threatening": 8340,
      "mushrooms": 8341,
      "slacks": 8342,
      "Engine": 8343,
      "chapter": 8344,
      "Sharon": 8345,
      "Graham": 8346,
      "Store": 8347,
      "ctives": 8348,
      "criminals": 8349,
      "initiative": 8350,
      "Berlin": 8351,
      "dreadful": 8352,
      "thunderstorms": 8353,
      "controls": 8354,
      "Terminator": 8355,
      "Catholic": 8356,
      "Egypt": 8357,
      "Return": 8358,
      "Simpson": 8359,
      "foul": 8360,
      "panty": 8361,
      "itinerary": 8362,
      "implement": 8363,
      "rapidly": 8364,
      "accommodation": 8365,
      "pronunciation": 8366,
      "Tonight": 8367,
      "amendment": 8368,
      "dramat": 8369,
      "reschedule": 8370,
      "certified": 8371,
      "cashmere": 8372,
      "investors": 8373,
      "Malaysia": 8374,
      "rhyth": 8375,
      "remote": 8376,
      "unbearable": 8377,
      "caffeine": 8378,
      "stomachache": 8379,
      "Agreement": 8380,
      "Amanda": 8381,
      "Bingo": 8382,
      "EFL": 8383,
      "Joseph": 8384,
      "Ltd": 8385,
      "Pacific": 8386,
      "Parsons": 8387,
      "duplic": 8388,
      "deducti": 8389,
      "treadmill": 8390,
      "inatown": 8391,
      "inventory": 8392,
      "utensils": 8393,
      "accustomed": 8394,
      "impolite": 8395,
      "Wangfujing": 8396,
      "Shakespeare": 8397,
      "350": 8398,
      "43": 8399,
      "69": 8400,
      "AP": 8401,
      "Aright": 8402,
      "Ass": 8403,
      "BB": 8404,
      "Bel": 8405,
      "Cou": 8406,
      "Catch": 8407,
      "Den": 8408,
      "Ever": 8409,
      "Fit": 8410,
      "Fed": 8411,
      "Food": 8412,
      "Find": 8413,
      "Fancy": 8414,
      "Gal": 8415,
      "Gam": 8416,
      "Hah": 8417,
      "Jake": 8418,
      "Jef": 8419,
      "Kathy": 8420,
      "Link": 8421,
      "Line": 8422,
      "Liz": 8423,
      "Luc": 8424,
      "Lester": 8425,
      "ME": 8426,
      "Min": 8427,
      "Making": 8428,
      "Ot": 8429,
      "Ox": 8430,
      "Pare": 8431,
      "Pur": 8432,
      "Port": 8433,
      "Point": 8434,
      "Pls": 8435,
      "Qing": 8436,
      "Ran": 8437,
      "Rice": 8438,
      "Rather": 8439,
      "Send": 8440,
      "Sher": 8441,
      "Sci": 8442,
      "Sleep": 8443,
      "Tour": 8444,
      "Vick": 8445,
      "WA": 8446,
      "Wy": 8447,
      "Win": 8448,
      "Woods": 8449,
      "Yet": 8450,
      "Yale": 8451,
      "Zhu": 8452,
      "awards": 8453,
      "bul": 8454,
      "bait": 8455,
      "bert": 8456,
      "boun": 8457,
      "dha": 8458,
      "elig": 8459,
      "fake": 8460,
      "goo": 8461,
      "iot": 8462,
      "iers": 8463,
      "iPod": 8464,
      "kar": 8465,
      "kward": 8466,
      "kni": 8467,
      "lind": 8468,
      "lation": 8469,
      "oak": 8470,
      "pint": 8471,
      "pond": 8472,
      "phew": 8473,
      "pushed": 8474,
      "qi": 8475,
      "rics": 8476,
      "rising": 8477,
      "sate": 8478,
      "scream": 8479,
      "tent": 8480,
      "titude": 8481,
      "tiring": 8482,
      "ume": 8483,
      "vast": 8484,
      "vial": 8485,
      "wh": 8486,
      "wang": 8487,
      "wages": 8488,
      "yage": 8489,
      "yalty": 8490,
      "yahoo": 8491,
      "zo": 8492,
      "zard": 8493,
      "thieve": 8494,
      "thumb": 8495,
      "ini": 8496,
      "inct": 8497,
      "inary": 8498,
      "inju": 8499,
      "react": 8500,
      "refre": 8501,
      "reconsider": 8502,
      "resolve": 8503,
      "recru": 8504,
      "recycle": 8505,
      "revenue": 8506,
      "rebound": 8507,
      "renov": 8508,
      "theme": 8509,
      "thent": 8510,
      "yout": 8511,
      "youth": 8512,
      "onent": 8513,
      "onions": 8514,
      "onica": 8515,
      "toler": 8516,
      "error": 8517,
      "errand": 8518,
      "llite": 8519,
      "oring": 8520,
      "ingu": 8521,
      "issa": 8522,
      "itious": 8523,
      "itations": 8524,
      "heater": 8525,
      "vend": 8526,
      "stink": 8527,
      "stun": 8528,
      "stunt": 8529,
      "stile": 8530,
      "semb": 8531,
      "lester": 8532,
      "arry": 8533,
      "artificial": 8534,
      "hairsty": 8535,
      "bever": 8536,
      "ench": 8537,
      "ician": 8538,
      "icians": 8539,
      "asure": 8540,
      "edit": 8541,
      "wered": 8542,
      "socket": 8543,
      "wider": 8544,
      "lied": 8545,
      "lifet": 8546,
      "chub": 8547,
      "ares": 8548,
      "idiot": 8549,
      "newest": 8550,
      "nephew": 8551,
      "rig": 8552,
      "rivers": 8553,
      "absor": 8554,
      "acti": 8555,
      "acup": 8556,
      "accompany": 8557,
      "accel": 8558,
      "acknowledgments": 8559,
      "cann": 8560,
      "canned": 8561,
      "ades": 8562,
      "adminis": 8563,
      "Youth": 8564,
      "nowhere": 8565,
      "sus": 8566,
      "sucks": 8567,
      "Theater": 8568,
      "ami": 8569,
      "timer": 8570,
      "mos": 8571,
      "shred": 8572,
      "shrink": 8573,
      "peas": 8574,
      "peak": 8575,
      "peppers": 8576,
      "loyalty": 8577,
      "user": 8578,
      "mph": 8579,
      "Head": 8580,
      "hose": 8581,
      "homer": 8582,
      "hoped": 8583,
      "seek": 8584,
      "deaf": 8585,
      "wanting": 8586,
      "update": 8587,
      "upgrade": 8588,
      "updated": 8589,
      "mentary": 8590,
      "concre": 8591,
      "una": 8592,
      "needle": 8593,
      "ainted": 8594,
      "ila": 8595,
      "poster": 8596,
      "poses": 8597,
      "ckham": 8598,
      "affection": 8599,
      "comedies": 8600,
      "compart": 8601,
      "comprehen": 8602,
      "jored": 8603,
      "spr": 8604,
      "spices": 8605,
      "chem": 8606,
      "cheat": 8607,
      "chemic": 8608,
      "cheesy": 8609,
      "tray": 8610,
      "tram": 8611,
      "trative": 8612,
      "Island": 8613,
      "comment": 8614,
      "buried": 8615,
      "foli": 8616,
      "folder": 8617,
      "cloud": 8618,
      "caut": 8619,
      "cape": 8620,
      "cappuccino": 8621,
      "Myra": 8622,
      "greater": 8623,
      "majored": 8624,
      "Chinatown": 8625,
      "brid": 8626,
      "brushes": 8627,
      "grounds": 8628,
      "gracious": 8629,
      "kindly": 8630,
      "kets": 8631,
      "xture": 8632,
      "finds": 8633,
      "answered": 8634,
      "meets": 8635,
      "tens": 8636,
      "osed": 8637,
      "pension": 8638,
      "closet": 8639,
      "interior": 8640,
      "margar": 8641,
      "nicely": 8642,
      "airsick": 8643,
      "blu": 8644,
      "renting": 8645,
      "homes": 8646,
      "discover": 8647,
      "Recent": 8648,
      "Research": 8649,
      "numerous": 8650,
      "forming": 8651,
      "Export": 8652,
      "Exhibit": 8653,
      "angle": 8654,
      "drank": 8655,
      "labe": 8656,
      "layout": 8657,
      "yearly": 8658,
      "toner": 8659,
      "Insurance": 8660,
      "phoned": 8661,
      "underwear": 8662,
      "Cola": 8663,
      "Being": 8664,
      "Beam": 8665,
      "Becky": 8666,
      "trivial": 8667,
      "shock": 8668,
      "shocked": 8669,
      "turnstile": 8670,
      "pajam": 8671,
      "earning": 8672,
      "earned": 8673,
      "hotpot": 8674,
      "ferage": 8675,
      "filed": 8676,
      "viewing": 8677,
      "desc": 8678,
      "driven": 8679,
      "decrease": 8680,
      "crew": 8681,
      "babies": 8682,
      "headlines": 8683,
      "portable": 8684,
      "produces": 8685,
      "productive": 8686,
      "101": 8687,
      "Anyone": 8688,
      "listing": 8689,
      "adding": 8690,
      "cylind": 8691,
      "runner": 8692,
      "chores": 8693,
      "cholester": 8694,
      "broc": 8695,
      "Alan": 8696,
      "Ford": 8697,
      "muscle": 8698,
      "cessed": 8699,
      "Start": 8700,
      "invitations": 8701,
      "mailing": 8702,
      "scoo": 8703,
      "201": 8704,
      "20s": 8705,
      "authent": 8706,
      "suitcases": 8707,
      "prime": 8708,
      "freak": 8709,
      "freck": 8710,
      "managerial": 8711,
      "severance": 8712,
      "doctors": 8713,
      "ringing": 8714,
      "shorten": 8715,
      "tested": 8716,
      "parlor": 8717,
      "relative": 8718,
      "grams": 8719,
      "reasonably": 8720,
      "Mona": 8721,
      "ffy": 8722,
      "sweep": 8723,
      "sweethe": 8724,
      "beginner": 8725,
      "Abby": 8726,
      "barrier": 8727,
      "awkward": 8728,
      "detached": 8729,
      "pendant": 8730,
      "salesperson": 8731,
      "olk": 8732,
      "stub": 8733,
      "filthy": 8734,
      "entering": 8735,
      "crab": 8736,
      "facing": 8737,
      "facility": 8738,
      "biking": 8739,
      "profits": 8740,
      "extended": 8741,
      "listened": 8742,
      "basics": 8743,
      "Firstly": 8744,
      "ators": 8745,
      "majority": 8746,
      "Roy": 8747,
      "Rock": 8748,
      "Ross": 8749,
      "receiving": 8750,
      "instant": 8751,
      "treatments": 8752,
      "teenagers": 8753,
      "Steph": 8754,
      "figuring": 8755,
      "steady": 8756,
      "voyage": 8757,
      "publishing": 8758,
      "dropping": 8759,
      "2008": 8760,
      "photograp": 8761,
      "Tracy": 8762,
      "transferring": 8763,
      "designers": 8764,
      "ificent": 8765,
      "Peckham": 8766,
      "berty": 8767,
      "leaded": 8768,
      "Boys": 8769,
      "searching": 8770,
      "varies": 8771,
      "hearts": 8772,
      "strongly": 8773,
      "slippers": 8774,
      "slippery": 8775,
      "desks": 8776,
      "catches": 8777,
      "satisfy": 8778,
      "Marcia": 8779,
      "gained": 8780,
      "grandchildren": 8781,
      "starters": 8782,
      "blogging": 8783,
      "fluent": 8784,
      "approve": 8785,
      "fatter": 8786,
      "periodic": 8787,
      "reminded": 8788,
      "fireworks": 8789,
      "firecrackers": 8790,
      "increased": 8791,
      "scored": 8792,
      "throws": 8793,
      "tivity": 8794,
      "supporting": 8795,
      "appears": 8796,
      "dishwasher": 8797,
      "routes": 8798,
      "cultures": 8799,
      "cube": 8800,
      "curious": 8801,
      "snakes": 8802,
      "turbulence": 8803,
      "Haunted": 8804,
      "funda": 8805,
      "Mao": 8806,
      "fares": 8807,
      "standards": 8808,
      "marriages": 8809,
      "Correct": 8810,
      "daddy": 8811,
      "instruction": 8812,
      "Paula": 8813,
      "wrapping": 8814,
      "decline": 8815,
      "declared": 8816,
      "Macy": 8817,
      "alike": 8818,
      "pushing": 8819,
      "Arm": 8820,
      "quette": 8821,
      "loudly": 8822,
      "criter": 8823,
      "robber": 8824,
      "electrician": 8825,
      "Financial": 8826,
      "tutor": 8827,
      "organizational": 8828,
      "achievement": 8829,
      "palm": 8830,
      "widely": 8831,
      "renewable": 8832,
      "aboard": 8833,
      "embassy": 8834,
      "ivity": 8835,
      "warehouse": 8836,
      "separately": 8837,
      "traveller": 8838,
      "Frankly": 8839,
      "tornadoes": 8840,
      "federal": 8841,
      "tricky": 8842,
      "Westerners": 8843,
      "titles": 8844,
      "Students": 8845,
      "Elvis": 8846,
      "phia": 8847,
      "remains": 8848,
      "annoy": 8849,
      "brows": 8850,
      "niest": 8851,
      "meaningful": 8852,
      "participation": 8853,
      "XXXXXX": 8854,
      "XXXXXXXXXX": 8855,
      "General": 8856,
      "sympathy": 8857,
      "gentleman": 8858,
      "gentlemen": 8859,
      "African": 8860,
      "coupon": 8861,
      "arranging": 8862,
      "lunar": 8863,
      "hunter": 8864,
      "cancellation": 8865,
      "complimentary": 8866,
      "Pete": 8867,
      "Melissa": 8868,
      "breasts": 8869,
      "Joanna": 8870,
      "establishment": 8871,
      "conductor": 8872,
      "mileage": 8873,
      "investigation": 8874,
      "Write": 8875,
      "fetch": 8876,
      "accommodate": 8877,
      "existing": 8878,
      "civili": 8879,
      "Marketing": 8880,
      "gathering": 8881,
      "relieved": 8882,
      "allergy": 8883,
      "demonstrate": 8884,
      "Dollar": 8885,
      "Consumer": 8886,
      "Consult": 8887,
      "Fifth": 8888,
      "Fifty": 8889,
      "punishment": 8890,
      "envelope": 8891,
      "scientist": 8892,
      "Karl": 8893,
      "murder": 8894,
      "priority": 8895,
      "crafts": 8896,
      "benefici": 8897,
      "executive": 8898,
      "Ruth": 8899,
      "cubicle": 8900,
      "aspects": 8901,
      "albums": 8902,
      "bullet": 8903,
      "professionals": 8904,
      "tattoos": 8905,
      "championship": 8906,
      "citizens": 8907,
      "Reservation": 8908,
      "Capital": 8909,
      "Friendship": 8910,
      "consumers": 8911,
      "clouds": 8912,
      "Economics": 8913,
      "Vargas": 8914,
      "ketchup": 8915,
      "conflict": 8916,
      "cuisine": 8917,
      "Buddha": 8918,
      "Veronica": 8919,
      "Yoga": 8920,
      "hidden": 8921,
      "irrit": 8922,
      "disgusting": 8923,
      "magnificent": 8924,
      "spectacular": 8925,
      "galaxies": 8926,
      "saturday": 8927,
      "orientation": 8928,
      "arbitration": 8929,
      "hackers": 8930,
      "assume": 8931,
      "protest": 8932,
      "violin": 8933,
      "Clinton": 8934,
      "Beautiful": 8935,
      "Embassy": 8936,
      "Fixed": 8937,
      "Psycho": 8938,
      "false": 8939,
      "veggies": 8940,
      "consignment": 8941,
      "Meanwhile": 8942,
      "bikini": 8943,
      "Gambling": 8944,
      "Oxford": 8945,
      "Parents": 8946,
      "Wyatt": 8947,
      "eligible": 8948,
      "knife": 8949,
      "satellite": 8950,
      "screaming": 8951,
      "thieves": 8952,
      "errands": 8953,
      "lifetime": 8954,
      "acceler": 8955,
      "administrative": 8956,
      "homeroom": 8957,
      "concrete": 8958,
      "chemicals": 8959,
      "Recently": 8960,
      "Exhibition": 8961,
      "pajamas": 8962,
      "cholesterol": 8963,
      "authentic": 8964,
      "345": 8965,
      "4000": 8966,
      "5000": 8967,
      "76": 8968,
      "8th": 8969,
      "82nd": 8970,
      "92": 8971,
      "Ave": 8972,
      "Band": 8973,
      "Bureau": 8974,
      "Cli": 8975,
      "Cam": 8976,
      "Cart": 8977,
      "Cain": 8978,
      "Cooper": 8979,
      "Cathy": 8980,
      "DA": 8981,
      "DJ": 8982,
      "Dong": 8983,
      "Dig": 8984,
      "Double": 8985,
      "Dude": 8986,
      "Drop": 8987,
      "Eat": 8988,
      "Eif": 8989,
      "Emp": 8990,
      "Egg": 8991,
      "Ecu": 8992,
      "Ellen": 8993,
      "Fre": 8994,
      "Fro": 8995,
      "Flo": 8996,
      "Fool": 8997,
      "Full": 8998,
      "Foot": 8999,
      "Gi": 9000,
      "Gover": 9001,
      "GPA": 9002,
      "Hou": 9003,
      "Hand": 9004,
      "Hank": 9005,
      "Kent": 9006,
      "Kun": 9007,
      "Kris": 9008,
      "Kids": 9009,
      "Lit": 9010,
      "Les": 9011,
      "Little": 9012,
      "Lim": 9013,
      "Lap": 9014,
      "Lau": 9015,
      "Larry": 9016,
      "Mand": 9017,
      "Mur": 9018,
      "Mount": 9019,
      "Nic": 9020,
      "None": 9021,
      "Near": 9022,
      "Ori": 9023,
      "Pam": 9024,
      "Pame": 9025,
      "Seve": 9026,
      "Slow": 9027,
      "Silly": 9028,
      "Swit": 9029,
      "Tot": 9030,
      "Vo": 9031,
      "VCR": 9032,
      "Wat": 9033,
      "Www": 9034,
      "bake": 9035,
      "batt": 9036,
      "cave": 9037,
      "crun": 9038,
      "ctory": 9039,
      "euro": 9040,
      "eBay": 9041,
      "faint": 9042,
      "gally": 9043,
      "gag": 9044,
      "gard": 9045,
      "gloves": 9046,
      "hone": 9047,
      "hers": 9048,
      "ivate": 9049,
      "iquette": 9050,
      "ko": 9051,
      "kite": 9052,
      "lers": 9053,
      "lish": 9054,
      "lakes": 9055,
      "mou": 9056,
      "mbed": 9057,
      "nif": 9058,
      "nment": 9059,
      "nish": 9060,
      "pit": 9061,
      "phe": 9062,
      "pra": 9063,
      "pite": 9064,
      "pies": 9065,
      "praise": 9066,
      "rust": 9067,
      "rus": 9068,
      "rack": 9069,
      "root": 9070,
      "sper": 9071,
      "sang": 9072,
      "ssed": 9073,
      "slog": 9074,
      "splendid": 9075,
      "tin": 9076,
      "uel": 9077,
      "uals": 9078,
      "wok": 9079,
      "xiang": 9080,
      "zart": 9081,
      "zip": 9082,
      "ino": 9083,
      "inno": 9084,
      "inher": 9085,
      "inations": 9086,
      "inspir": 9087,
      "insert": 9088,
      "rer": 9089,
      "relu": 9090,
      "repa": 9091,
      "rets": 9092,
      "removed": 9093,
      "redecorating": 9094,
      "resem": 9095,
      "anny": 9096,
      "anoid": 9097,
      "atible": 9098,
      "ona": 9099,
      "tops": 9100,
      "erce": 9101,
      "lled": 9102,
      "orche": 9103,
      "inge": 9104,
      "itary": 9105,
      "hetti": 9106,
      "vet": 9107,
      "stab": 9108,
      "stack": 9109,
      "sters": 9110,
      "stream": 9111,
      "seal": 9112,
      "secre": 9113,
      "sevent": 9114,
      "leopard": 9115,
      "aro": 9116,
      "army": 9117,
      "beating": 9118,
      "enix": 9119,
      "hats": 9120,
      "oomy": 9121,
      "forgetting": 9122,
      "forks": 9123,
      "asm": 9124,
      "assum": 9125,
      "asier": 9126,
      "assemb": 9127,
      "alert": 9128,
      "editing": 9129,
      "welf": 9130,
      "soil": 9131,
      "lion": 9132,
      "limo": 9133,
      "lifting": 9134,
      "chin": 9135,
      "utility": 9136,
      "eteen": 9137,
      "etiquette": 9138,
      "cope": 9139,
      "cola": 9140,
      "nest": 9141,
      "rope": 9142,
      "output": 9143,
      "absolute": 9144,
      "cans": 9145,
      "gover": 9146,
      "iration": 9147,
      "irable": 9148,
      "Wear": 9149,
      "Week": 9150,
      "suff": 9151,
      "amic": 9152,
      "shield": 9153,
      "ceiling": 9154,
      "ferent": 9155,
      "tear": 9156,
      "aggress": 9157,
      "aghetti": 9158,
      "worries": 9159,
      "lod": 9160,
      "usive": 9161,
      "users": 9162,
      "knowing": 9163,
      "indis": 9164,
      "prospect": 9165,
      "inee": 9166,
      "ctant": 9167,
      "entre": 9168,
      "entit": 9169,
      "perseverance": 9170,
      "workman": 9171,
      "tool": 9172,
      "consci": 9173,
      "convent": 9174,
      "unlucky": 9175,
      "unks": 9176,
      "unlimited": 9177,
      "unreliable": 9178,
      "ula": 9179,
      "ulars": 9180,
      "ulpt": 9181,
      "bless": 9182,
      "poet": 9183,
      "pover": 9184,
      "akery": 9185,
      "ssibly": 9186,
      "compromise": 9187,
      "compatible": 9188,
      "itement": 9189,
      "jog": 9190,
      "spite": 9191,
      "preference": 9192,
      "pretti": 9193,
      "offended": 9194,
      "Soda": 9195,
      "boast": 9196,
      "boating": 9197,
      "actress": 9198,
      "commerce": 9199,
      "bury": 9200,
      "buzz": 9201,
      "clue": 9202,
      "sav": 9203,
      "sauna": 9204,
      "spective": 9205,
      "guid": 9206,
      "bushes": 9207,
      "Goodness": 9208,
      "underest": 9209,
      "maths": 9210,
      "stored": 9211,
      "Chang": 9212,
      "itted": 9213,
      "payments": 9214,
      "gray": 9215,
      "sius": 9216,
      "sized": 9217,
      "uding": 9218,
      "udding": 9219,
      "dude": 9220,
      "avili": 9221,
      "tenth": 9222,
      "sitter": 9223,
      "carto": 9224,
      "downs": 9225,
      "discharged": 9226,
      "discourage": 9227,
      "ademy": 9228,
      "Reading": 9229,
      "hardworking": 9230,
      "Excel": 9231,
      "drought": 9232,
      "minds": 9233,
      "corder": 9234,
      "tones": 9235,
      "Inspection": 9236,
      "rumba": 9237,
      "Color": 9238,
      "Coming": 9239,
      "Beeth": 9240,
      "Note": 9241,
      "finest": 9242,
      "lightweight": 9243,
      "elsewhere": 9244,
      "ails": 9245,
      "hotter": 9246,
      "smiling": 9247,
      "sette": 9248,
      "mature": 9249,
      "wonderfully": 9250,
      "enjoyable": 9251,
      "views": 9252,
      "designing": 9253,
      "resist": 9254,
      "mixture": 9255,
      "dried": 9256,
      "skate": 9257,
      "skies": 9258,
      "decade": 9259,
      "shapes": 9260,
      "periods": 9261,
      "imported": 9262,
      "producer": 9263,
      "funniest": 9264,
      "1050": 9265,
      "sentence": 9266,
      "sentences": 9267,
      "regrets": 9268,
      "contents": 9269,
      "specialize": 9270,
      "specialties": 9271,
      "Forgive": 9272,
      "jelly": 9273,
      "bedside": 9274,
      "lifelong": 9275,
      "tale": 9276,
      "tawa": 9277,
      "realistic": 9278,
      "Mozart": 9279,
      "Whose": 9280,
      "stric": 9281,
      "strangers": 9282,
      "waterfall": 9283,
      "waterproof": 9284,
      "sculpt": 9285,
      "musician": 9286,
      "expectation": 9287,
      "chase": 9288,
      "Need": 9289,
      "examine": 9290,
      "slender": 9291,
      "thesis": 9292,
      "presentations": 9293,
      "camcorder": 9294,
      "wns": 9295,
      "excitement": 9296,
      "Smiths": 9297,
      "rels": 9298,
      "Atl": 9299,
      "Unless": 9300,
      "passbook": 9301,
      "tourna": 9302,
      "sweating": 9303,
      "stylish": 9304,
      "Shut": 9305,
      "Short": 9306,
      "soul": 9307,
      "confis": 9308,
      "beginners": 9309,
      "appreciation": 9310,
      "appreciates": 9311,
      "gradually": 9312,
      "lunchtime": 9313,
      "dresser": 9314,
      "cram": 9315,
      "crash": 9316,
      "programmers": 9317,
      "sponsor": 9318,
      "Brook": 9319,
      "Perrier": 9320,
      "profile": 9321,
      "allowing": 9322,
      "fifties": 9323,
      "1234": 9324,
      "purposes": 9325,
      "posture": 9326,
      "receives": 9327,
      "sunning": 9328,
      "sunset": 9329,
      "sunscreen": 9330,
      "Roll": 9331,
      "metro": 9332,
      "paste": 9333,
      "insight": 9334,
      "graduates": 9335,
[...]
